#version: 0.2
Ġ t
Ġ a
h e
i n
r e
o n
Ġt he
e r
a t
Ġ o
Ġ s
e n
Ġ c
e s
Ġ w
i s
n d
i t
o r
Ġ p
a l
e d
Ġ b
Ġ f
a n
Ġo f
in g
Ġ in
a r
o u
Ġ m
Ġa nd
i c
Ġt o
i on
Ġ d
l e
r o
a s
en t
Ġ h
Ġt h
c t
Ġ e
Ġ re
i l
o m
v e
Ġ l
s t
Ġ n
l y
Ġb e
â Ģ
Ġ is
Ġ T
at ion
s e
o l
Ġ g
i m
e t
i d
u t
c e
r a
c h
u r
o t
o w
Ġf or
Ġ A
i g
Ġ u
Ġ on
Ġ S
Ġth at
Ġs t
v er
Ġ I
Ġ C
i r
Ġ y
u l
e l
it h
a m
a y
Ġa s
Ġp ro
Ġc on
a d
he r
Ġa re
Ġa n
Ġw ith
i f
o d
Ġw h
Ġa l
Ġy ou
Ġ it
Ġo r
t er
ĠT he
Ġ M
Ġ (
g e
m ent
Ġ P
at e
t h
Ġ 1
is t
Ġd e
o p
er s
es s
a b
Ġe x
i es
e ct
il l
Ġw e
Ġs u
Ġc om
Ġ B
Ġ he
re s
it y
u s
i ve
âĢ Ļ
o re
es t
a c
Ġ v
u m
o s
Ġh a
ro m
Ġ H
q u
e m
an t
Ġ W
Ġb y
l d
i v
k e
a in
p p
n t
Ġa t
ig h
Ġ D
Ġc an
u d
Ġ E
Ġf rom
o c
Ġc h
Ġw as
Ġ R
Ġ r
a nd
Ġn e
or t
i al
Ġ F
Ġs e
u re
Ġ 2
ic al
Ġ le
u n
Ġ âĢ
ar t
Ġn ot
Ġ N
Ġ G
r i
Ġha ve
Ġ L
o g
Ġs h
Ġ en
Ġth is
Ġs p
p t
re d
ic h
Ġw or
igh t
al l
ion s
r ou
p er
Ġa b
Ġ im
d u
o st
t her
ou r
g h
at ed
in e
Ġu s
ou ld
0 0
om e
f f
a g
a ct
p l
Ġp l
ar d
T he
id e
ou t
Ġin t
el l
Ġthe ir
Ġ O
a ge
i z
an s
as t
e ar
Ġwh ich
ul t
r u
a k
e c
ou s
Ġw he
Ġ k
Ġa d
ĠI n
Ġcom p
Ġyou r
Ġ J
Ġthe y
Ġcon t
Ġ U
c c
i b
or m
Ġal l
Ġin c
u st
en d
Ġre s
ation s
o od
Ġd is
Ġw ill
a p
ve l
i p
Ġm ore
e w
on g
e re
âĢ Ŀ
Ġh as
i a
s o
ar y
ĠT h
ab le
Ġd o
k s
en ce
Ġc l
a re
at er
u al
Ġm an
il d
an ce
Ġp er
Ġo ther
a ch
Ġim p
Ġb ut
e p
ent s
r y
Ġt e
in d
ig n
Ġwe re
Ġm e
o se
Ġal so
ĠâĢ ľ
as s
Ġon e
Ġa pp
res s
ct ion
re at
it ion
as e
a ke
' s
a v
Ġu n
a u
Ġs o
Ġo ut
Ġ j
im e
Ġa r
en s
ic e
b er
Ġ1 9
Ġe v
Ġp art
Ġst ud
f orm
ver y
on e
a ce
Ġs y
or d
or y
ac k
i re
Ġab out
Ġs c
ou nt
ĠS t
is h
o k
) .
am e
an g
or s
c es
Ġwh o
Ġp e
u e
Ġcom m
u b
it e
ou nd
Ġthe m
Ġp re
Ġh is
re e
i ke
n ow
if f
Ġ K
Ġ qu
ol og
r ic
l ow
ĠI t
i e
i le
Ġu p
Ġbe c
Ġre c
Ġth an
Ġm ay
Ġt ra
at es
a il
Ġ "
nd er
ay s
op le
Ġs ome
Ġbe en
Ġwhe n
p h
ing s
ĠC h
ĠTh is
Ġy ear
Ġit s
Ġthe re
i an
Ġ2 0
Ġd iff
Ġwor k
Ġint o
Ġo ver
Ġt ime
if ic
Ġa g
m er
r it
Ġthe se
ver s
ou gh
Ġ ro
re n
m s
Ġg o
t e
er v
al ly
Ġ V
n ing
Ġo ur
Ġcon s
Ġh ow
rou gh
on s
l ud
Ġbe t
Ġu se
on d
Ġpe ople
y s
Ġ 3
in t
w e
Ġc ol
Ġ ra
au se
ter n
l l
st em
l ic
Ġa cc
j ect
Ġa ct
Ġd es
Ġt r
Ġu nder
it ies
o ve
ment s
Ġm ost
ir st
Ġk now
Ġe ff
Ġh ad
al th
i ous
Ġg en
le ct
Ġl ike
l es
vel op
Ġsu ch
Ġt w
Ġb l
Ġne w
Ġre l
Ġs a
ro w
i ent
Ġre p
Ġ Y
o ok
Ġne ed
at ive
Ġw ould
c ess
Ġn o
et h
ul ar
ation al
Ġ if
Ġinc lud
p le
at ing
Ġhe l
Ġan y
c ed
Ġch ild
y p
Ġp r
o b
Ġus ed
Ġpro v
he d
Ġp h
Ġon ly
Ġf e
Ġpro du
Ġin d
Ġhel p
Ġwh at
Ġp o
Ġde velop
as ed
o v
Ġsy stem
Ġm od
Ġth rough
) ,
Ġf irst
Ġa m
b le
Ġman y
Ġa c
is e
ic s
Ġof f
Ġe m
il ity
Ġsp ec
at h
Ġdiff ere
Ġre g
ar k
Ġo b
os s
ĠU n
Ġtw o
ri b
Ġd i
o ol
Ġex p
ot h
rou nd
ur ing
f ter
f ul
he n
u c
t s
er m
Ġde c
Ġas s
Ġad d
Ġat t
is s
u res
ro p
n e
c y
in k
Ġin f
ra m
al s
ib le
ol d
ar ch
Ġ20 1
t en
an ge
we en
ow er
Ġs ur
ra ct
ut ion
Ġw ell
ĠâĢ ĵ
er t
Ġsu b
Ġsh ould
Ġ -
Ġc o
at a
Ġsu pp
Ġp res
Ġh igh
Ġre m
Ġin v
f ore
Ġbet ween
if e
ĠH e
he s
ow n
Ġf l
i ed
x t
n g
Ġw ater
Ġtr ans
a w
e ver
Ġle ar
Ġs m
Ġhe alth
ur al
Ġyear s
Ġwhe re
Ġ 4
g an
it s
ad e
se l
I n
Ġin ter
ch n
Ġc ould
s s
Ġre se
ic k
Ġn um
il y
ĠW e
id ent
Ġm ake
ic t
Ġ2 00
ant s
Ġimp ort
olog y
Ġb u
Ġfor m
Ġ 5
Ġp ers
u ch
w n
Ġs im
Ġdiffere nt
Ġg et
Ġgen er
Ġeff ect
Ġdis c
i ence
ch ool
Ġex per
Ġin st
it ed
Ġp ol
Ġe ar
in es
t ing
Ġ her
Ġex am
oc i
form ation
Ġd et
n ess
Ġl ar
or k
e f
on t
in s
mer ic
Ġres ult
at ure
Ġs ign
Ġv ar
ical ly
l and
g y
Ġf ound
ce pt
ist s
ual ly
Ġinc re
is m
Ġl ong
h at
f t
Ġbec ause
o y
Ġc ar
Ġthe n
Ġa fter
Ġm ed
Ġt yp
Ġh um
g et
Ġev en
Ġwor ld
Ġ ed
Ġres p
Ġ very
Ġc ent
Ġd ata
Ġex t
Ġw ay
Ġj ust
ak ing
Ġc ount
Ġg ra
ru ct
Ġpro cess
v ent
i ew
Ġ ke
ur n
et y
Ġre f
iv es
ot her
Ġp at
Ġd ist
ag es
i vers
Ġ1 8
Ġse e
ol low
Ġs et
Ġth ose
ĠA meric
Ġe ach
Ġte chn
Ġpro g
l ed
as es
Ġre qu
Ġl oc
Ġc a
c k
Ġf act
Ġp ub
p s
u es
Ġpro ble
Ġse c
Ġc all
om m
c er
ir on
Ġe very
d s
iz ed
Ġpart ic
ar m
Ġbe ing
Ġsa id
Ġchild ren
Ġcomm un
Ġimport ant
v ed
Ġin formation
ĠA l
. âĢĿ
od y
Ġde p
iz e
Ġde f
Ġsh ow
Ġstud y
ect ion
t le
Ġa ut
Ġm on
Ġl ife
Ġus ing
Ġ ent
. .
Ġd uring
w ard
e g
ĠP ro
Ġar t
Ġm uch
ic es
Ġle ad
Ġc re
c ent
at her
Ġs he
ĠA s
Ġle vel
im es
Ġf am
Ġf ollow
Ġst r
Ġb oth
Ġstud ents
Ġf ind
Ġre ad
Ġs k
Ġo wn
al ity
ver n
Ġa v
Ġex pl
Ġcomp le
Ġs ame
Ġf ood
g g
t he
Ġm in
ĠH ow
Ġm y
Ġdo es
Ġ 6
Ġc ur
ĠA n
ĠThe y
Ġg row
in ed
T h
Ġs ol
Ġr ight
Ġm ade
an y
h ip
Ġpers on
al e
Ġc or
Ġin s
Ġen d
on om
Ġg ood
i o
Ġb ack
v iron
t ed
. ,
Ġt est
ĠF or
ĠI f
ent ial
Ġs chool
i el
Ġv al
st and
Ġp op
Ġst ate
Ġm ain
u nd
Ġc he
Ġsm all
Ġg rou
ĠA r
Ġg l
oc k
Ġcl ass
eth od
2 0
Ġh ist
n ce
iv id
1 9
el s
re ad
Ġwh ile
ro l
i x
Ġof ten
in al
Ġbe fore
d er
Ġf un
Ġb o
i en
Ġag ain
Ġt reat
Ġrese arch
a x
Ġdes ign
ect ed
Ġnum ber
Ġpro t
in ce
im ate
i qu
t y
e x
er gy
ĠS p
Ġb r
Ġl ess
ar s
| |
Ġp oss
om en
Ġv is
Ġapp ro
ul ation
d ition
ut e
ĠI nd
r al
Ġl it
Ġp ower
Ġprov id
Ġre du
00 0
Ġdis e
i er
Ġt ake
is hed
ak es
Ġs erv
Ġ est
Ġhum an
Ġd ay
v es
Ġo cc
Ġm em
ire ct
Ġr is
Ġch ar
Ġe c
viron ment
iz ation
Ġm ethod
oc ial
a ir
Ġn ow
st r
ĠN ew
ĠS c
Ġha nd
Ġor gan
Ġact iv
Ġ1 0
Ġb ody
Ġc ell
Ġth ree
o h
Ġsupp ort
u p
Ġlar ge
re nt
v ing
ro ss
iv ing
Ġd own
Ġh im
Ġcomm on
os ed
us s
ur y
Ġcon f
e red
Ġa round
ain s
Ġpo int
ĠR e
Ġbe l
Ġcon st
it al
her s
ivers ity
ter s
en g
act er
iv en
Ġm ust
Ġ 7
ion al
Ġst art
Ġpl an
a j
a red
v en
a ve
Ġe lect
Ġs er
i um
Ġl ook
Ġc le
ra in
Ġe qu
Ġde m
Ġg reat
et s
it ions
a h
c l
Ġall ow
c om
Ġo p
Ġa ff
Ġad v
âĢ Ķ
d ay
Ġrep ort
Ġcont in
Ġexam ple
Ġgo vern
Ġm et
Ġinclud ing
, âĢĿ
Ġc are
Ġl and
ĠB ut
an c
ul l
e e
Ġd id
Ġ 8
Ġw rit
Ġunder stand
er ing
sel f
ĠThe re
Ġd r
ĠY ou
Ġimp ro
ou se
Ġre t
Ġp ract
Ġbe h
Ġpres ent
n er
Ġpro p
ang u
Ġbu ild
Ġm at
g en
i red
es p
Ġper form
Ġan al
Ġg u
âĢ ĵ
as h
it ive
w ay
Ġcall ed
Ġknow n
or n
ivid ual
ial ly
Ġed uc
Ġpub lic
ab ility
Ġth ough
i ver
Ġqu est
ra ph
1 0
Ġst ill
ĠâĢ ĺ
ater ial
Ġc our
r on
Th is
Ġ 9
ou th
Ġlear ning
ĠW h
Ġe as
in c
g er
l ine
Ġs om
s p
id s
ĠA nd
i od
Ġ ide
ere st
ĠThe se
Ġpl ace
om s
Ġt em
Ġst and
ro du
l ish
an k
i or
Ġf ew
in ation
Ġwith in
d e
Ġb en
m e
Ġwith out
Ġc ap
pt ion
Ġ ident
in ing
Ġca us
Ġg re
our ces
Ġlear n
Ġen ergy
Ġm ight
Ġen vironment
Ġth ink
Ġch ang
ert ain
t t
Ġind ividual
as on
Ġvar i
Ġp ot
Ġis s
en se
Ġdevelop ment
Ġch ange
Ġph ys
ĠD e
iv ed
ĠI s
ou n
Ġprodu ct
b ers
ord ing
Ġs ocial
Ġp ur
ag n
âĢ ľ
Ġp ar
Ġsy m
ĠE ng
Ġ ve
if y
. "
ent al
Ġp os
Ġl ight
Ġd irect
l ess
Ġw ant
Ġme as
Ġpro ject
Ġpl ay
Ġm aterial
Ġpro f
ĠHow ever
Ġim m
Ġre al
iel d
m an
Ġen g
if ied
Ġa ir
ĠC on
r ation
Ġdise ase
s c
Ġb as
Ġs l
at ic
Ġ19 9
in ess
ĠUn iversity
ĠA d
a per
Ġb est
Ġs it
Ġcont rol
Ġb re
r ies
are nt
al k
Ġare a
ent ly
er al
our ce
Ġd on
olog ical
u g
is ion
Ġp ass
Ġl ow
t on
Ġdes c
ain ed
at ural
Ġan other
aj or
b s
ĠAmeric an
ill ion
cc ess
Ġpro per
Ġe t
or th
Ġ &
Ġw omen
Ġse ver
Ġint erest
Ġinclud e
i ans
Ġan t
Ġbel ie
Ġh ome
Ġbet ter
Ġm ark
Ġris k
w are
r is
Ġbl ood
Ġm us
t o
er c
Ġl aw
er n
Ġo per
Ġprov ide
Ġc ult
Ġm ult
Ġl angu
Ġre st
Ġb ased
Ġp ain
ĠT o
ĠE x
Ġbec ome
Ġav ail
Ġo pp
id er
Ġsign ific
pl es
Ġprog ram
et w
Ġ $
ent ion
Ġor der
ar c
Ġ ess
at or
Ġproble m
Ġagain st
Ġmod el
a z
Ġn on
Ġec onom
Ġear ly
i k
i ents
ĠP h
ĠS h
at s
Ġto p
Ġpartic ular
e ed
Ġm ove
Ġsec ond
Ġo ld
I t
v iew
om p
l ished
' t
Ġt er
w ays
Ġan im
h or
Ġe le
Ġt re
Ġle g
Ġw ar
he re
Ġde v
ill s
l u
o f
g in
Ġgovern ment
Ġl im
Ġcur rent
ĠC l
Ġadd ition
Ġke ep
Ġsever al
Ġl ast
Ġin du
Ġm il
ĠR es
Ġhe re
Ġm ajor
Ġpro m
og n
Ġf ore
iss ion
Ġgrou p
e ad
Ġhist ory
ic le
Ġme ans
Ġc ause
Ġocc ur
r ist
Ġf in
ĠW hen
Ġto o
ra p
ard s
Ġposs ible
Ġc ost
Ġh ig
Ġsa f
Ġinv ol
og raph
Ġfam ily
Ġme an
ur ther
am p
Ġcomp ut
Ġper iod
Ġor ig
o id
Ġst ruct
Ġab le
ir c
Ġben ef
re t
il ar
u se
Ġresult s
Ġ [
Ġne ar
res ent
Ġob ject
Ġop en
or ies
ĠâĢ Ķ
Ġc al
Ġu nt
Ġ Q
ĠUn ited
Ġ1 5
Ġavail able
ot e
Ġs ay
Ġspec ies
id ence
p ar
an e
Ġper cent
ol ution
oc us
Ġam ong
is ed
Ġb us
Ġpl ant
Ġsignific ant
ĠC ol
in a
Ġe l
an ces
Ġha pp
pl oy
Ġs ince
el f
Ġm en
ĠP l
s y
l ing
Ġsc ient
Ġ .
p or
c ing
Ġm ar
u rop
Ġare as
Ġf ac
Ġl ab
o int
Ġproble ms
th ough
Ġc ase
o le
ot s
Ġfe el
end ed
Ġcon d
ĠS e
Ġth ings
ĠG od
Ġt ru
Ġf re
Ġd el
Ġtreat ment
Ġsystem s
end s
Ġother s
Ġ Z
Ġacc ess
Ġb i
Ġf our
Ġs ays
Ġt imes
Ġloc al
ress ion
am es
ĠC an
Ġn ame
Ġfollow ing
ab ly
Ġcount ry
os p
Ġhe ad
Ġpre vent
led ge
ĠC omm
Ġcon n
Ġc ertain
Ġn atural
Ġsu ccess
Ġl o
Ġv iew
Ġf ree
ĠA t
Ġd ue
on es
ĠSt ates
Ġp ost
un e
b r
Ġwe e
Ġfun ction
Ġa ge
Ġtyp e
Ġh ard
Ġr un
Ġp aper
o x
Ġre ce
ĠW hat
Ġcom e
Ġimp act
Ġg r
Ġf ocus
Ġmon th
ic ult
ic ation
Ġapp lic
Ġl ist
Ġo pt
gg est
ĠE n
Ġlangu age
o ver
Ġass oci
b e
, "
Ġlevel s
Ġf low
Ġ1 7
Ġc reat
urop e
Ġg iven
Ġbeh av
Ġex ist
Ġb ro
Ġin tern
Ġp ress
Ġam ount
Ġinv est
n ot
Ġv ol
w w
ys is
Ġ1 2
Ġp ut
Ġcom b
Ġpot ential
op e
ut ure
ĠT e
Ġn etw
ure d
Ġlit tle
r ing
ate ly
Ġm aking
Ġch o
Ġsu ggest
h y
Ġob s
W hat
he m
Ġdet erm
Ġcell s
Ġsh ort
W e
Ġv ir
Ġh y
Ġf ar
it her
Ġb ook
ive ly
Ġb ir
ĠC ent
at ory
ort un
Ġs ing
1 8
v ious
id es
1 2
ect s
Ġle t
ĠO n
rib ut
Ġ 0
Ġyou ng
or ld
od e
ific ation
ap s
g ed
Ġs w
ch ie
eth ing
Ġen c
ĠA f
Ġsp ace
Ġt urn
Ġl ater
o ks
_ _
Ġunt il
ĠB e
ĠN ational
Ġra d
an n
ĠE urope
Ġimpro ve
f ace
st it
age ment
Ġvar ious
Ġp red
Ġl ine
Ġc irc
Ġ er
c le
Ġchar acter
I f
Ġsim ilar
Ġgener al
Ġal ong
Ġf il
Ġac ross
Ġre le
Ġpol it
ak en
ĠCh rist
Ġeduc ation
Ġlike ly
ĠO r
Ġincre ase
ic ro
Ġd ays
Ġse em
as ing
Ġcommun ity
Ġhe art
Ġdiff icult
Ġrep resent
at ors
Ġcond itions
Ġapp ear
end ing
ĠF r
Ġc rit
Ġtechn ology
ap e
ec ially
Ġch all
Ġus ually
ĠU S
ru ction
ort s
et ic
as ter
Ġcons um
p r
ate g
ĠA ll
a pp
Ġwor ks
ri ed
Ġte ac
ain ing
Ġspec ific
Ġd ra
Ġal ways
Ġcour se
Ġde ath
ob al
Ġsom ething
is c
iqu e
Ġf uture
Ġ ill
Ġp ast
Ġdisc uss
Ġcre ate
Ġdesc rib
Ġg ive
Ġwor ds
Ġrequ ire
Ġhig her
Ġtem per
Ġcle ar
ic ient
Ġ1 6
oh n
il ities
Ġa chie
l er
ore d
Ġexper ience
Ġstr ong
Ġaut hor
Ġs ens
esp ecially
Ġneed s
a pt
oci ety
id d
Ġe y
Ġrec ord
ist ic
Ġm ot
Ġto ol
a f
em ber
Ġne cess
Ġ '
Ġappro ach
Ġb rain
5 0
Ġspec ial
Ġpop ulation
our s
le ment
1 1
at ures
Ġp arent
ĠS o
Ġto day
A s
Ġchang es
Ġm illion
m in
ĠM ed
pt oms
Ġcan cer
m it
Ġwh y
Ġcent ury
Ġknow ledge
Ġke y
Ġprof ess
Ġest ab
p ut
Ġhow ever
as k
at ch
ru g
Ġab ove
ĠS y
Ġne xt
f or
Ġd am
Ġto get
Ġle ast
Ġtoget her
Ġsu ff
en cy
Ġcons ider
Ġcount ries
Ġbe gin
s w
ĠB l
m ost
Ġcomple te
Ġs ide
ac es
Ġc y
Ġm ov
ip le
Ġresp ons
ĠAf ric
Ġrese arc
re en
Ġeffect s
Ġint rodu
Ġbus iness
Ġt ry
ra y
Ġstud ies
ĠB rit
Ġk ind
Ġ especially
Ġas k
Ġwork ing
du ct
Ġt erm
Ġf urther
Ġrel ations
Ġpat ients
av es
ĠE ar
Ġcol le
Ġpl ants
it ing
Ġte xt
Ġpr im
Ġtyp es
i res
om es
b ased
et er
The re
ar ing
Ġst ep
Ġc ases
ere nce
sel ves
Ġle ft
one y
Ġne ver
Ġf ull
Ġw ays
p ort
ab les
b y
Ġinf lu
Ġa way
n al
am m
Ġsub ject
le t
u ment
Ġpol ic
Ġl ower
Ġc r
il t
Ġs elf
Ġen ough
Ġre ason
Ġn orm
al es
H ow
Ġte am
u ation
Ġche m
ac c
o ot
g es
Ġro le
S t
ver age
Ġ z
l o
Ġd om
Ġwhe ther
Ġha ving
ĠG en
Ġacc ount
or ing
Ġphys ical
al f
/ /
Ġsu m
Ġqu ality
ĠW ith
th ing
s ide
Ġl oss
Ġcon cer
i pp
re l
Ġen s
h ing
Ġmethod s
Ġg round
n ed
ib ility
Ġgo ing
om an
y n
Ġr ange
Ġadd ress
Ġm akes
v al
ĠG erm
re am
Ġquest ion
le y
ĠW ar
a im
ed i
Ġem ploy
ĠO ne
Ġsym ptoms
ĠS ome
N A
ĠJ ohn
ĠI m
Ġbec ame
Ġf und
u ed
Ġcomple x
Ġsing le
read y
Ġval ue
c ul
Ġto ward
Ġprodu ction
Ġm ind
Ġsc ience
Ġind ic
Ġrec ogn
Ġd ig
.. .
ĠEng lish
Ġanal ysis
: //
Ġh ouse
Ġst at
ach ing
Ġb ig
Ġc ity
a e
ot t
Ġw r
Ġf ield
un g
Ġpro b
1 5
Ġ19 8
3 0
ĠL e
ĠW orld
sy ch
Ġdevelop ed
ĠB y
a ut
it es
Ġactiv ity
Ġobs erv
2 00
Ġ3 0
ir d
Ġgrow th
1 6
Ġr ate
Ġgrou ps
Ġde g
Ġse en
Ġres ources
i ol
Ġwor d
b on
Ġtra ining
f act
Ġsu re
Ġs ource
ac y
Ġperform ance
Ġl ive
Ġpartic ip
Ġal ready
Ġn ut
Ġcl ose
ic ial
Ġactiv ities
os is
Ġne g
i ation
ĠG o
Ġtra dition
Ġcon cept
f er
Ġe ither
Ġredu ce
Ġ ver
and s
Ġw ind
ur ch
Ġf all
Ġbe low
Ġd one
er y
ĠHe alth
iv al
ur ity
Ġr ather
Ġ1 4
Ġl ot
u le
F or
ou ra
Ġst ory
Ġin it
Ġproduct s
m ber
Ġm ass
Ġre ally
Ġacc ording
is on
ĠTh at
E R
A n
ide red
iv ity
ĠIn tern
Ġs ize
ĠC ar
au gh
ur b
Ġs am
pl ic
es c
Ġev ent
et imes
Ġcol lect
ro ll
Ġiss ues
Ġmed ical
ight s
Ġw ide
Ġprot ect
u nt
ove red
ep end
Ġab s
Ġexper im
Ġrec omm
on str
il s
ĠC omp
Ġbuild ing
Ġf ail
re ct
Ġfre qu
Ġsur face
Ġl ay
y m
1 4
i am
Ġeffect ive
ĠM ar
ra ms
Ġfl u
Ġsk ills
Ġph ot
Ġb at
Ġart icle
Ġresearc hers
ear ch
re g
Ġf ive
1 7
ut ions
ric t
Ġdet ail
Ġcl imate
Ġcons idered
Ġquest ions
ĠA m
Ġto t
Ġar ch
Ġs ent
Ġsim ple
Ġd rug
Ġunderstand ing
Ġassoci ated
Ġn ational
Ġ =
le ep
Ġev idence
ĠG e
s h
Ġwho le
ĠA b
ch an
Ġon ce
am in
Ġt aken
ag ing
Ġs ite
us ion
ĠD r
Ġsu per
Ġmod els
Ġre d
ĠS outh
Ġup on
Ġc ut
iz ing
Ġn ature
Ġnetw ork
ĠC al
ĠA ss
iv il
1 3
re me
ĠS he
Ġme et
Ġdem onstr
se qu
Ġst ates
ĠP r
Ġrel ated
ens ive
ĠT r
Ġgl obal
Ġab ility
ac ks
Ġmem bers
ĠN orth
Ġan n
ub lic
Ġwh ite
Ġmark et
Ġcre ated
Ġincre ased
ip s
Ġpress ure
Ġrequ ired
l ike
Ġrelations hip
Ġcan not
Ġpract ice
ĠAmeric a
ound s
Ġcon dition
Ġh old
Ġprovid es
Ġsu n
Ġs al
ict ion
ĠN e
p ro
Ġsk in
ĠSt ud
ly ing
Ġdo ct
Ġp ay
Ġmain t
Ġf ri
ib r
Ġeng ine
Ġthem selves
Ġrel ig
Ġpolit ical
Ġhist or
ĠM ay
Ġt ell
it ud
Ġst ress
Ġc ame
or ks
Ġt ar
Ġmeas ure
Ġopp ortun
Ġl iving
op h
ill ed
Ġret urn
g ing
Ġanim als
W hen
Ġd est
Ġan sw
our nal
Ġm icro
ra d
Ġd oc
Ġass ess
Ġact ually
Ġpur p
ac ed
Ġent ire
p ect
Ġfact ors
o ber
os es
Ġneed ed
Ġar g
Ġbl ack
en ces
ĠR ep
Ġ1 3
Ġ ut
ol ic
Ġpr iv
Ġh tt
Ġ vers
h ib
Ġp ath
Ġfe ed
Ġmod ern
ĠM an
o on
Ġwee k
en ing
Ġcol l
Ġmaterial s
A S
Ġad ult
en n
Ġsp e
or g
Ġqu ick
Ġeconom ic
Ġhealth y
m b
Ġwe ight
Ġinter act
âĢ ¦
Ġpub lished
Ġso ft
Ġide a
Ġstud ent
Ġpart s
Ġim age
Ġcon duct
Ġav oid
Ġthough t
Ġess ential
Ġpro te
Ġp ort
ĠA ust
Ġfam il
Ġman agement
Ġde ep
Ġserv ices
Ġm ach
Ġcom es
Ġlit er
Ġg e
Ġal most
Ġexper ien
Ġstruct ure
Ġ19 7
st ry
Ġwrit ing
er ve
Ġf at
Ġdi et
ĠC ont
ag ed
" .
Ġit self
Ġpre vious
is ing
Ġpat tern
ĠA ct
Ġnecess ary
um p
Ġrec ent
Ġe mer
art ment
Ġf ish
y l
g est
us h
ve re
Ġex erc
Ġre act
ab or
Ġprodu ce
g o
Ġo il
Ġm or
e b
Ġf ru
n ces
Ġc at
Ġ X
an ced
Ġd og
Ġf ram
en ed
i et
Ġincre asing
ur s
Ġev al
Ġon line
it ary
ne y
Ġpop ular
. )
Ġter ms
Ġl ink
on se
Ġchall eng
ĠG u
Ġcomput er
Ġm oney
a i
ĠY ork
Ġmonth s
I D
Ġint eg
Ġse par
Ġh alf
z e
C h
Ġright s
Ġperson al
) :
en e
Ġpr inc
Ġb ar
Ġg as
u el
ĠEar th
Ġso il
em ic
Ġf r
ast ic
Ġshow s
Ġy et
he t
Ġmed ic
b o
um e
ir m
Ġcont ent
p ly
Ġ1 00
Ġar r
T o
ĠSt ate
Ġa ction
Ġparent s
Ġreg ion
ĠD ep
ect ions
ĠWh ile
Ġj ob
Ġv ide
n s
Ġbehav ior
o res
Ġre pl
Ġindividual s
Ġbe gan
Ġe ver
ac hes
Ġto ok
it ation
ol l
p id
ĠC o
ĠD o
ri pt
ĠH ist
Ġreg ard
Ġgre en
h old
ĠH is
ed s
Ġtar get
em pt
Ġme chan
m a
in ter
A l
idd le
Ġtot al
ul ations
A R
Ġchem ical
Ġs at
Ġthrough out
ic les
Ġst op
ut es
ver se
y le
Ġread ing
c hes
Ġc op
Ġsh own
er ous
Ġr ul
Ġt aking
es e
ig ure
Ġcl aim
m y
Ġd at
E S
Ġpre c
Ġs ociety
Ġf arm
cc ording
Ġdesign ed
Ġdi agn
Ġs ense
Ġserv ice
Ġbu ilt
Ġpos ition
Ġthe rap
ist ics
W h
Ġb ur
Ġf ire
ri or
in ary
Ġ5 0
ĠA fter
le x
Ġindu stry
Ġcon c
Ġcle an
r ast
Ġan c
Ġstand ard
Ġlong er
ĠBrit ish
Ġcomp any
ren g
ap an
u ra
ful ly
Ġtemper ature
a ff
Ġ19 6
Ġde b
A T
Ġs ix
ord er
Ġreg ular
ab it
ĠJ ew
es tern
Ġl a
Ġcaus ed
- -
uc k
Ġs leep
Ġprovid ed
Ġbenef its
ve y
Ġa verage
rib ution
Ã ©
ct ions
Y ou
Ġal g
Ġpos itive
Ġre v
Ġenvironment al
Ġimp lement
l or
l t
Ġhe av
Ġmean ing
Ġident ify
l ight
row n
Ġin j
Ġh ours
Ġcaus es
ic ien
Ġest im
Ġt alk
Ġtra vel
Ġhe at
Ġcol or
Ġbre ak
Ġ2 5
Ġmat ter
Ġsur v
w h
er ation
Ġche ck
Ġschool s
Ġ1 1
h ood
Ġem b
Ġcont act
ist ance
rop ri
Ġeas y
Ġcont ain
Ġet c
ĠCan ad
Ġsp read
ĠP e
os ition
ail y
Ġrel ative
min ist
ĠN o
Ġre view
ĠP ar
m on
Ġl at
ĠE m
Ġl ives
Ġtru e
ow s
Ġiss ue
Ġatt ention
Ġc e
Ġsaf e
Ġst e
k now
Ġinclud es
Ġse x
ĠRes earch
Ġorig inal
Ġsub st
Ġvari ety
Ġth ing
Ġcomp on
al ing
ric ult
Ġ |
Ġbr ing
ĠS u
Ġaff ect
Ġus es
as c
Ġac cept
Ġresp onse
d om
Ġmult iple
eng th
Ġf ace
ar ies
ron ic
Ġcons ist
av ing
ĠS chool
Ġw ild
ĠC O
ĠO ur
c hed
Ġcomp et
Ġ Â
u fact
Ġb acter
imate ly
Ġresp ect
Ġl if
st er
Ġl ed
at ives
Ġv iol
Ġl og
Ġapp l
ĠI I
rough t
Ġ19 4
ri e
is ter
am ed
Ġf em
ĠInd ia
ed eral
Ġgre ater
land s
ad es
g ar
e xt
Ġmus ic
Ġev ents
Ġcar bon
Ġnorm al
ar ily
n ers
Ġs low
Ġex c
Ġmove ment
Ġs ources
Ġprog rams
Ġst reng
Ġhelp s
Ġl ack
Ġsim ply
Ġear th
ĠJ apan
Ġth reat
Ġbelie ve
ĠA pp
Ġparticular ly
Ġreport ed
it or
ĠS ec
Ġorig in
t ies
Ġpol l
ĠIn stit
Ġsom etimes
Ġinvest ig
ab et
Ġrem ov
Ġp sych
Ġe at
ar i
Ġl ove
Ġmin im
Ġcomp ared
Ġfe atures
end er
r im
Ġb al
Ġwrit ten
Ġcomp an
Ġqu ant
r or
Ġscient ists
Ġinvol ved
Ġse lect
Ġcult ure
B ut
Ġenc oura
or ith
Ġdam age
ell ing
Ġem ot
I S
m ing
ren ch
Ġdo ing
Ġc ust
Ġens ure
Ġopt im
n ew
Ġatt ack
Ġ i
Ġachie ve
ĠK ing
Ġpo or
ĠQ u
du c
ĠM ore
is es
Ġca pt
Ġout side
icien cy
iqu es
ĠP er
Ġdevelop ing
ĠI nt
Ġt ax
Ġcor rect
Ġfood s
Ġanal y
uc le
Ġind epend
Ġfor ms
Ġelect ric
Ġro b
ra nd
Ġbas ic
ĠM e
ĠP res
Ġext reme
o or
Ġpolic y
Ġc amp
Ġgrow ing
Ġgener ally
id ge
se t
Ġsaf ety
Ġc oun
Ġref er
Ġprodu ced
2 5
Ġser ies
u ge
ĠM in
Ġatt empt
c ies
ĠSc ience
I N
Ġp ict
ĠR ec
ens ion
os ing
ĠW ill
Ġallow s
Ġvir us
Ġun c
Ġsp eed
Ġthe ory
ĠP re
ĠAust ral
is ions
Ġim ages
Ġob t
Ġh arm
Ġth us
Ġexp ress
Ġdis pl
Ġ- -
Ġp age
Ġsh are
Ġfor ce
Ġp le
Ġdef in
um b
Ġwe bs
Ġsu st
erv ation
em s
Ġm agn
op s
id ed
Ġs qu
ac hed
Ġc ross
Ġl ate
ĠM any
os ure
ol es
Ġser ious
Ġpat ient
Ġnum bers
iss ions
ie f
ĠE d
ro om
Ġdra w
Ġtradition al
Ġm ess
g round
Ġfe et
Ġ ir
Ġteac hers
Ġo x
ograph y
Ġf ul
om et
Ġa p
Ġinclud ed
an a
Ġman ufact
Ġa ware
Ġalg orith
f ect
ad s
ra ft
Ġide as
Ġmed ia
r ated
Ġanim al
Ġt akes
Ġ2 4
Ġv acc
Ġvis it
Ġthere fore
Ġpoint s
ut h
Ġeas ily
Ġw ood
A N
Ġhy d
Ġdoes n
Ġcontin ue
Ġd ou
Ġa im
ĠCh ina
o very
Ġtool s
Ġf a
Ġprob ably
Ġre ve
Ġfin anc
r ate
Ġco ver
l s
o ly
Ġget ting
ĠC ount
Ġfore st
m ar
Ġn ight
Ġapplic ations
Ġpre p
Ġk ids
Ġcon cent
ĠA g
Ġs ound
Ġcrit ical
ĠL ear
Ġp rior
Ġt ree
Ġprog ress
Ġdiffere nce
ĠH ar
Ġprim ary
Ġpr int
Ġcol on
Ġd aily
Ġve get
Ġpred ict
Ġad apt
Ġ /
Ġinst ead
Ġapp ropri
itud e
ĠJ an
ĠB o
ec ause
Ġhigh ly
vent ion
Ġdirect ly
Ġintern ational
w here
an cy
ir it
ers on
2 2
Ġcomm it
Ġdeterm ine
ĠP art
Ġal tern
Ġsome one
ĠU s
ĠA ug
Ġear l
Ġsec urity
i ot
Ġoff er
h a
Ġlook ing
ce ll
Ġdec re
Ġaddition al
Ġun ique
Ġm other
Ġscient ific
Ġc it
Ġm ental
in o
Ġw all
Ġqu ite
r s
Ġref lect
Ġadd ed
Ġse a
as ons
Ġdise ases
ĠM ost
Ġcommun ities
Ġhum ans
Ġlar ger
Ġlim ited
Ġr out
Ġb ab
Ġvide o
Ġstart ed
Ġtechn iques
Ġe th
Ġlead ers
re w
ĠJ u
n a
Ġd iv
Ġsol ution
he l
y ing
if t
v ant
h aps
Ġag o
Ġs il
u ary
Ġ ,
Ġt end
in ks
Ġinst it
Ġf av
er g
Ġestab lished
Ġprop osed
Ġext ra
i ers
Ġt iss
Ġd ang
Ġto wn
Ġw arm
o es
ĠC ons
Ġth ous
ĠEurope an
Ġv it
Ġansw er
Ġins ide
Ġc ivil
Ġse arch
Ġ4 0
Ġbo oks
an ks
hen s
Ġpro ced
ĠCent er
Ġa ud
ĠY our
Ġc ru
ing ton
Ġquick ly
Ġcl in
Ġdoc ument
ul ate
ter m
Ġtre es
Ġval ues
Ġcompan ies
ce ed
Ġspe ak
Ġneg ative
Ġinter p
Ġs old
b or
Ġth ird
ĠG l
Ġstr ateg
Ġn ation
n ov
Ġapplic ation
Ġtoward s
Ġhe ld
Ġs ou
le ction
ĠA c
Ġbro ad
ĠE duc
Ġey e
Ġlead ing
Ġact ive
if orn
as ks
ĠInd ian
s on
Ġimm edi
c il
al y
is ms
Ġcent ral
Ġsoft ware
ĠE l
Ġuse ful
ĠF rench
Ġaut om
ell ow
l ation
Ġmil itary
Ġfr ont
Ġb it
Ġinf ection
Ġse vere
il le
s u
ĠAr t
ĠM od
ol ar
Ġt ri
pr il
Ġc ode
ĠS m
Ġno vel
Ġt ask
el t
Ġal though
i us
p e
und red
Ġbeh ind
it ect
y ond
Ġac id
Ġrequ ires
Ġd ry
Ġcommun ication
c on
ar r
ĠR eg
c ial
ch ing
Ġess ay
Ġcust om
ww w
Ġen h
Ġse qu
O N
use um
Ġindu str
Ġh or
ĠS ch
O n
Ġpurp ose
abet es
Ġg ard
Ġh ar
ĠInstit ute
Ġ ur
Ġbl ock
Ġdec ision
d en
Ġwr ite
Ġbir th
iforn ia
b it
Ġexerc ise
Ġgra ph
om ing
Ġsol ar
2 1
iz es
Ġfamil ies
Ġcont ribut
Ġmem ory
Ġso on
Ġf oot
Ġh ost
iel ds
Ġdr ink
w ise
j oy
O R
Ġwh ose
e ff
ĠAfric a
olog ies
Ġoff icial
ĠT ra
Ġw alk
Ġb ad
ce an
Ġsupp ly
ĠW est
Ġele ments
Ġdev ices
ĠO f
Ġf ast
Ġexist ing
Ġl ength
u ous
Ġsh all
um an
ĠAl though
Ġlab or
Ġb ase
ĠJ es
Ġtrans port
Ġd er
gen cy
Ġst ra
ĠM arch
Ġinflu ence
Ġve h
Ġon es
ĠDep artment
ther n
u k
I C
Ġst ay
c ome
Ġh ot
Ġprote in
ĠN ot
ĠO ct
Ġp ack
Ġr ates
Ġex act
r ight
ĠGerm an
pp er
in ct
it is
Ġdoct or
Ġbegin ning
Ġte aching
Ġv ia
Ġc ard
r ig
Ġsit uation
Ġappro x
Ġcap ac
ul ated
Ġw ent
ur ies
ĠR uss
Ġprocess es
Ġeff icient
Ġcont ains
Ġ201 0
Ġseem s
Ġimport ance
Ġdec l
ĠCh ild
ĠF irst
ax im
Ġad op
om b
ix ed
Ġvis ual
Ġ201 2
âĢ ¢
e qu
am ic
Ġgo al
her n
il os
Ġeval u
Ġhand s
iz ations
ĠCal ifornia
Ġcost s
ri ption
Ġcap ital
ĠO ther
Ġm om
Ġan g
Ġfinanc ial
ib er
ĠH ere
ĠAfric an
Ġdem and
d ing
t ime
at t
Ġwork ers
r ition
ĠC or
A C
4 0
Ġh abit
Ġm ount
Ġnew s
Ġs ection
u ff
ĠCh ar
Ġthink ing
m ission
Ġf ight
Ġrem ains
__ __
ĠJ une
Ġl ost
im in
Ġmin utes
Ġadv ant
Ġus er
Ġm ill
Ġhtt p
ro gen
ĠSe pt
Ġg ame
ell ig
ĠIntern ational
Ġor d
ou d
Ġpriv ate
Ġrece ived
ĠT w
Ġtyp ically
Ġestab lish
Ġsym b
O ne
ĠM on
Ġanc ient
ĠR et
b ack
he st
ro te
Ġdescrib ed
ĠG ree
g n
ĠH er
Ġtest ing
Ġn ucle
Ġexp ect
Ġd ark
ĠHist ory
f ort
Ġj ud
S o
ist ry
Ġh undred
Ġst ru
Ġprot ection
ĠA nt
Ġbehav i
Ġj o
H e
Ġf it
Ġexam ples
Ġlar gest
Ġu lt
Ġad j
us ed
Ġst ri
ĠAug ust
ĠK e
Ġex cept
ew ork
Ġmach ine
r an
Ġsust ain
2 3
ĠS w
ĠF rom
Ġwas te
Ġdep end
ĠTr ans
Ġ x
Ġnear ly
Ġbec omes
Ġcar ry
Ġcont ext
Ġra pid
âĢĿ .
Ġ201 1
Ġm ole
Ġtest s
6 0
Ġproper ty
Ġus ers
Ġdis p
Ġb rought
Ġad minist
Ġen joy
Ġadult s
i pl
l im
ĠM us
Ġc red
c oh
v est
Ġas p
A nd
ip ment
Ġobject s
Ġel se
Ġe p
ort hern
8 0
Ġappropri ate
Ġwee ks
Ġs n
Ġl ines
Ġre ach
Ġw a
Ġag ricult
Ġf ra
ord ers
ĠA pril
Ġag ree
Ġg ot
Ġcont roll
en ge
Ġle aves
ĠR iver
Ġrem ain
c ks
Ġd yn
Ġt able
est ic
it er
Ġc am
Ġbacter ia
Ġbas is
Ġn orth
il es
I V
it able
ĠS erv
Ġra re
he ad
ibr ary
yp e
E N
Ġpl aces
Ġeff orts
Ġproject s
Ġcon ver
2 4
Ġ2 1
Ġloc ated
Ġresp ond
Ġde al
od es
od ies
Ġwebs ite
se e
ĠB ar
y ear
w ork
id ents
ĠJu ly
Ġrec ently
Ġconst ruction
Ġse ason
Ġtra de
Ġm ention
Ġst age
se ct
ĠJes us
Ġsur round
Ġsit es
' re
Ġ201 3
o ff
Ġcreat ing
Ġf inal
Ġcal cul
ĠD av
ĠM y
Ġg ives
u ments
ines e
ra el
ĠSy stem
E D
Ġc rop
Ġc ou
Ġto ld
Ġu nd
Ġin form
k ing
Ġey es
Ġexp ected
Ġb orn
ie ce
ee ch
Ġset t
Ġprovid ing
ĠW ash
ĠEng land
Ġdig ital
Ġchalleng es
Ġinst all
Ġcult ural
m ed
Ġsum mer
Ġfri ends
Ġe gg
Ġs outh
Ġteac her
ĠAmeric ans
Ġrelig ious
Ġpo ly
Ġcomp ar
Ġbe aut
Ġj oint
Ġv ict
Ġc ool
ĠP ress
Ġrecomm end
ĠAss oci
e al
res h
o ke
Ġappl ied
ĠM c
19 9
Ġh yp
a id
Ġproper ties
Ġsc ale
Ġf ather
l ife
Ġdev ice
og en
Ġt asks
c les
Ġde ad
Ġgu id
at ur
c o
Ġcol d
i ra
ar ian
f ord
Ġcent er
ĠPro g
ond on
Ġbenef it
rib ute
ĠChrist ian
Ġbe yond
m ore
Ġb ound
Ġe ating
Ġwe b
Ġhim self
ĠS im
Ġb reat
Ġte eth
a ul
Ġover all
ĠWill iam
Ġdi ed
Ġcit iz
Ġcommun ic
Ġro om
ill ing
Ġant i
u ro
ĠCanad a
ĠD ay
Ġsa w
Ġpract ices
Ġb ott
Ġarch itect
Ġc ateg
Ġp an
Ġp en
Ġf uel
Ġsu gar
ens ity
ce mber
Ġins p
w ater
air s
Ġaff ected
Ġcomm and
lo ad
Ġfollow ed
Ġh ope
Ġre asons
ĠPres ident
Ġim ag
Ġcon sequ
Ġgra du
Ġmil es
Ġsignificant ly
h am
Ġtherap y
Ġfun ctions
I T
Ġk ing
Ġrespons ible
ĠF in
Ġce le
Ġsh ape
Ġtra ck
oc r
Ġfe ature
Ġs on
i able
Ġsmall er
on y
i ar
Ġm iddle
Ġdeg ree
Ġex ec
Ġco ast
Ġany thing
coh ol
à ¤
Ġconf lic
Ġmeas ures
ĠI S
Ġ :
Ġrece ive
ap ter
Ġconst ant
Ġevery thing
Ġleg al
ĠCh urch
se c
Ġequ ipment
Ġh ous
Ġfor ces
i ples
Ġlim it
ĠTe chn
am a
Ġsc reen
augh t
Ġstreng th
Ġm axim
ĠP ark
Ġnot hing
ul a
Ġdiffere nces
e v
Ġ201 4
Ġloc ation
Ġprofess ional
Ġcho ose
oc ks
Ġt en
Ġold er
ect or
Ġb ul
Ġconst ruct
Ġinc or
ĠThe n
A t
Ġexp osure
Ġm ob
ĠC ong
b ur
Ġ ice
Ġm id
Ġ200 9
l amm
re es
ĠGo vern
Ġc ra
m osp
ove mber
st e
ĠSept ember
res p
Ġcurrent ly
The se
Ġd ate
Ġopportun ity
ing u
Ġcommon ly
ic o
Ġwe ather
Ġem p
Ġredu ced
ĠA ccording
Ġtr ial
Ġrul es
Ġgener ation
Ġyour self
Ġro ck
ĠEduc ation
Ġask ed
Ġeconom y
Ġcolle ction
Ġvir t
ough t
ab ilities
ĠIn c
est s
ĠC ity
Ġoccur s
ire ction
for ce
know n
ĠG reat
Ġf ear
Ġut il
ĠJan uary
Ġpattern s
Ġsuccess ful
Ġn amed
Ġconst it
Ġsp irit
Ġacc ur
or ation
Ġstep s
Ġr ise
Ġal one
Ġcomplete ly
Ġt it
ĠOct ober
Ġorgan ization
ĠCh inese
oc ol
ĠIs rael
Ġac qu
Ġlaw s
Ġra in
Ġdi abetes
Ġne igh
l in
ĠComm un
ĠE ven
re hens
g ment
Ġeff ort
ĠJ ournal
Ġinst ru
P A
Ġf ederal
osp ital
if ically
ĠWash ington
ter y
Ġ200 8
ĠF eb
Ġful ly
Ġpre gn
Ġ201 5
b ook
ĠP ol
Ġstand ards
an ish
E x
ĠH igh
Ġf air
Ġearl ier
Ġtrans fer
Ġpower ful
Ġevery one
Ġtry ing
Ġs we
hem at
Ġw rote
Ġmaint ain
Ġbe g
Ġw oman
ant ic
Ġw on
Ġinterest ing
Ġident ified
ĠR ed
Ġ2 3
Ġdrug s
Ġm is
x i
ĠD is
Ġr ich
ĠB i
Ġdist ribution
Ġpres ence
Ġfor mer
Ġr at
Ġcapac ity
Ġp et
w ide
Ġd en
Ġfact or
Ġpur ch
ĠS ur
Ġ6 0
Ġfram ework
m en
r ical
Ġhistor ical
er o
Ġgo es
ĠIn st
it ch
Ġper fect
urb an
) ;
Ġb all
mit ted
Ġallow ed
Ġw inter
b re
Ġs em
Ġgen etic
Ġbir ds
ĠAr ch
Ġro ad
Ġr ule
Ġb illion
ĠL ondon
c an
Ġf ile
ic a
Ġle ave
Ġpl aced
ric k
Ġill ust
Ġcomm erc
Ġis n
ĠCount y
Ġm iss
ĠDe velop
ord s
Ġocc up
Ġcompon ents
rel ated
im ens
Ġvers ion
Ġass ign
ib ly
2 7
Wh ile
Ġshow ed
Ġdist ance
ĠV ir
Ġfind ings
b l
o e
Ġs ch
Ġdisc overed
Ġstrateg ies
ies t
ĠD uring
ĠE c
Ġin put
W ith
al ed
Ġmajor ity
ed ia
ĠM ex
Ġact ions
ĠE ast
rie ved
od ay
iven ess
en cies
Ġmem ber
Ġh on
ir ing
Ġsc en
ĠD NA
Ġvis ion
Ġent er
Ġdispl ay
Ġfru it
Ġass um
ar a
Ġac ad
Ġe ight
Ġincre ases
Ġplan et
ĠDe cember
Ġg old
Ġdest ro
re c
Ġto x
Ġm al
ĠO ff
Ġev olution
A L
re et
Ġc ry
ĠS ince
ĠRe ad
Ġimm une
Ġcho ice
Ġcontin ued
ĠV al
tern al
Ġform ed
Ġstat us
ĠP at
Ġsit u
Ġcom ing
Ġstru gg
er a
t ical
Ġnetw orks
ed om
Ġt ur
ph as
qu e
2 6
Ġsp ect
Ġb ra
Ġass ist
Ġinst ance
Ġp ow
ru ary
ent y
2 9
Ġas se
Ġsign s
Ġsymb ol
ĠGen eral
os y
Ġch urch
Ġm ig
Ġ19 3
Ġrelative ly
ĠBl ack
ra b
Ġele ment
Ġ +
Ġobserv ed
Ġoff ers
og le
am ent
Ġm ut
c raft
S T
ĠL aw
ĠR oman
Ġbelie f
ĠN ovember
ĠC our
Ġun it
ĠA ut
Ġplan ning
Ġdat as
Ġwe ak
Ġph ilos
Ġchall enge
at ers
7 0
Ġw ond
ger y
Ġte ach
Ġg ave
Ġc ities
Ġreg ions
Ġst im
Ġcon vers
Ġfor ward
ain t
Ġcoll abor
Ġm ap
Ġ201 6
Ġtiss ue
Ġ200 7
Ġm outh
Ġnut ri
Ġc ook
e es
Ġmom ent
ĠAl so
Ġin nov
Ġill ness
ĠLear ning
Ġprom ot
Ġnot e
Ġconsum ption
E C
Ġstruct ures
ĠC oun
Ġexpl ore
Ġper haps
Ġmov ing
2 8
Ġg ir
Ġsy nt
Ġst yle
Ġcour t
ĠSp ec
Ġat mosp
Ġchang ed
i ate
m ark
ous ly
Ġpr ice
ĠS an
ĠA re
Ġrem ember
Ġant ib
Ġem issions
Ġro ot
ast e
Ġoff ic
un ch
c ious
S ome
Ġgu ide
in ated
Ġex hib
A M
Ġbab y
Ġfem ale
Ġpresent ed
Ġt ou
ĠN ow
Ġd irection
Ġsol utions
Ġdef ined
Ġwor th
ru pt
Ġdid n
Ġqu al
P ro
Ġexpl ain
c are
ĠB ecause
Ġappear s
Ġconn ect
Ġmon it
im ent
Ġapp ly
Ġw id
em y
Ġp iece
ĠW ater
Ġsp eech
Ġst ories
Ġopportun ities
Ġcont ract
ĠH ouse
ĠU K
Ġrep e
Ġlearn ed
Ġha ir
or ge
Ġpar am
Ġcont rast
B y
ĠPro f
Ġexp and
Ġbal ance
Ġsur vey
Ġ19 5
ri ef
Ġclin ical
Ġn ames
Ġv ill
Ġpe ace
ĠC om
ien ces
ĠS ociety
Ġbo x
am b
Ġequ al
al t
or age
ĠAustral ia
ĠCon f
Ġrequire ments
ĠR o
ĠPe ople
" ,
Ġint ellig
at in
Ġf resh
a ign
is ation
ĠJ ust
ĠUn ion
Ġsam ple
Ġeduc ational
ess ion
I I
ĠPro t
ud d
gy pt
Ġal cohol
Ġst aff
Ġg iving
Ġrun ning
Ġreport s
Ġwork ed
ig en
ĠGerm any
Ġp p
p art
ĠB r
Ġg ain
if ul
Ġ2 6
Ġsu sp
ĠIn ter
Ġst ar
Ġdetail s
h ouse
ĠF l
Ġ2 8
o ice
Ġh uge
Ġliter ature
Ġres ource
k y
Ġ ing
ĠU se
a ur
Ġte le
Ġf ine
in y
h ors
ar ge
rom e
Ġr iver
Ġthous ands
Ġconduct ed
Ġsuggest s
Ġpers pect
o ch
Ġres istance
c ast
Ġintrodu ced
Ġset ting
y gen
Ġgard en
Ġag g
Ġtechn ique
Ġpict ure
Ġtechn ologies
c he
v olution
ĠFr ance
Ġinst ruct
Ġp hen
ĠJew ish
Ġfore ign
Ġabs or
ed ing
Ġatt ract
Ġm ission
D A
ap ers
et ers
Ġit ems
Ġopt ions
S A
ic ip
ro s
Ġbl ue
Ġout put
A d
Ġtop ic
Ġeff iciency
Ġextreme ly
Ġ2 2
Ġ iron
Ġcommerc ial
Ġcar ried
p ris
Ġtrans form
Ġsepar ate
al d
Ġinit ial
ograph ic
Ġwide ly
Ġs oci
ĠE ach
Ġ2 7
ĠRet rieved
Ġwr ong
het ic
Ġexperien ces
as ion
Ġch ance
om as
E M
Ġbelie ved
Ġfri end
Ġro t
Ġinc ome
id ing
Ġv ary
a res
Ġexperim ent
ĠEn vironment
ĠThe ir
ĠTh us
Ġn ative
i ance
xi ety
Ġbre ast
ĠAssoci ation
y d
Ġpl ans
u ild
Ġtre ated
Ġoff ice
Ġd ivid
Ġmult i
c ont
ĠC ur
ĠO ver
Ġindustr ial
Ġmus cle
Ġpass ed
Ġperform ed
Ġh om
resp ond
Ġex cess
Ġresult ing
ĠPh il
Ġdis order
âĢĿ ,
k en
el ines
Ġst ream
Ġaltern ative
Ġpl astic
ĠD ec
Ġhig hest
Ġ urban
ĠIntern et
ĠFeb ruary
Ġappro aches
at form
hes is
Ġcitiz ens
pp ed
ribut ed
m et
Ġgo als
Ġw atch
Ġprocess ing
Ġin sect
Ġse ven
Ġalgorith m
ĠA ng
at ically
Ġincor por
ĠMed ic
Ġem phas
z z
ward s
Ġevent ually
Ġ200 0
Ġexperim ents
Ġtr uth
Ġheav y
Ġfav or
Ġdec ades
ate gy
Ġsupp l
Ġdet ect
il it
Ġclass room
Ġlay er
ch ange
Ġgl ass
Ġc and
Ġasp ects
Ġdec isions
om a
Ġcharacter istics
Ġorgan izations
Ġf ert
b al
ĠP al
Ġdemonstr ate
ĠD es
Ġindepend ent
ub e
9 0
Ġb one
Ġstr ategy
Ġf igure
Ġcele br
Ġ201 7
Ġs ac
Ġoper ations
Ġf ields
Ġeas ier
ul s
Ġsp ring
Ġl iqu
plic ations
Ġcomp rehens
ĠCong ress
Ġm er
U n
Ġimmedi ately
ĠM at
Ġm ale
ruct ure
Ġhapp en
Ġp ick
E T
Ġcomb ination
Ġre ality
Ġmil k
Ġm o
i i
Ġser ve
or ial
Ġj ournal
ul um
ĠE gypt
ĠB ra
ĠCol le
ec es
Ġmedic ine
ĠG reen
Ġbo ard
n es
ĠW estern
I s
Ġref erence
Ġeffect ively
un ction
A ll
ing ly
Ġdi vers
Ġrele ase
. ;
Ġconn ected
Ġup d
ĠL et
i ant
Ġcy cle
Ġact ual
Ġsa ve
B e
Ġredu cing
Ġpolic ies
ĠL ord
Ġapprox imately
Ġb ank
ress ive
Ġassess ment
P S
Ġb ed
Ġdep ression
Ġbec oming
er ate
Ġ200 6
Ġsl ight
Ġrem ove
op hy
ere nces
ĠProg ram
Ġclass es
Ġfa ith
ĠD on
Ġestim ated
ĠP ublic
Ġop in
i ated
a us
ĠU nder
Ġparticip ants
oc al
olog ist
Ġ â
ent h
Ġelectric ity
Ġnum erous
Ġlet ter
Ġfam ous
ĠH uman
Ġinterp ret
Ġdes p
A fter
op y
Ġtrans l
3 5
Ġ ign
ĠU N
ogn itive
am ental
H E
ort ion
Ġb odies
Ġfrequ ently
Ġv es
ĠM ary
ĠThere fore
Ġpop ulations
ĠJ ames
Ġrecord s
ĠJapan ese
Ġprop ose
Ġsam ples
cept ion
re te
ĠO b
Ġ8 0
ĠR el
Ġtru st
Ġrecomm ended
Ġun ivers
Ġmet al
u it
Ġf ig
The y
Ġrele ased
ĠM or
Ġdist inct
ĠF urther
r ant
Ġris ks
Ġk id
el ine
Ġsex ual
Ġcoun ter
Ġrelationship s
Ġtemper atures
Ġnut rition
Ġleg is
ĠPl an
ĠM ich
id a
cl us
al le
ĠS ocial
Ġdestro y
ĠV ol
Ġgen e
c ular
Ġu pper
Ġfail ure
Ġv ul
por ary
Ġchang ing
Ġdis orders
Ġox ygen
Ġnucle ar
Ġmov ed
Ġsh ap
Ġpart y
ag er
Ġpres ident
ra w
Ġintern al
Ġcaus ing
ĠF ound
Ġbu y
Ġfind ing
Ġhouse hold
Ġorgan ic
Ġtr ig
Ġinvol ves
Â °
Ġbuild ings
Ġnot es
Ġlead s
i as
Ġst ore
Ġcom pl
Ġd rop
Ġcor respond
Ġimpro ved
Ġch ronic
Ġst orage
O S
olog ists
ĠC he
Ġdr ive
ro ph
Ġm ag
te e
rou p
Ġfl ood
ul f
Ġis ol
ur ation
Ġpract ical
Ġdou b
ura cy
ĠChild ren
ĠDav id
Ġg ames
Ġlo ad
Ġ esc
ang ing
Ġstate ment
Ġrele vant
Ġpre fer
Ġconn ection
ol ved
Ġvit amin
ĠWe b
Ġc ore
Ġfil m
Ġviol ence
Ġh omes
Ġadv anced
S h
Ġclear ly
Ġ200 5
ĠCoun cil
Ġstart ing
ed ic
d o
Ġd ri
Ġaut hors
Ġp i
Ġsc he
Ġdiscuss ion
Ġback ground
te red
Ġdog s
Ġhtt ps
ĠA v
Ġt im
Ġtre nd
4 5
Ġmin or
Ġadj ust
Ġsign al
p ed
Ġrep rodu
ĠColle ge
Ġconf irm
ĠS am
Ġapp e
S c
Ġvol ume
Ġget s
Ġpl atform
Ġcolle ge
ĠWh y
Ġbott om
Ġinf lamm
ĠS ee
Ġem ail
Ġadvant age
ĠGree k
Ġph ase
Ġval id
Ġexp ression
ify ing
R E
Ġk illed
Ġmost ly
Ġ ...
7 8
Ġcamp aign
Ġdescrib e
Ġpart ners
Ġmat hemat
i j
Ġcop y
Ġmess age
Ġl ived
Ġcre ation
Ġc overed
Ġexact ly
Ġexper ts
re st
erv ed
Ġread y
Ġrepl ace
Ġpre par
ĠIn f
Ġwant ed
Ġt our
Ġprevious ly
ĠW ork
re p
Ġprinc iples
ol id
Ġdeg rees
Ġp ip
Ġo cean
r um
P h
Ġb urn
Ġinj ury
Ġexper t
ĠM ark
ur ance
Ġrefer red
Ġar m
Ġrad io
ver t
ess or
Ġcirc um
Ġves sel
Ġnot ed
Ġsur gery
Ġinf ections
Ġany one
Ġ19 0
Ġlangu ages
Ġremov ed
Ġan xiety
ke y
Ġth ick
Ġs av
Ġbat tle
ĠDevelop ment
A r
ĠRep ublic
Ġhapp ens
a ult
Ġhe ar
ro g
Ġ #
Ġturn ed
Ġencoura ge
Ġh orm
row s
ĠT est
3 3
ot ic
le vel
Ġs and
Ġse ed
ress ed
Ġun f
ĠF ood
S p
i os
Ġregard ing
Ġto oth
ĠA ir
Ġacad emic
ĠT ex
Ġt um
Ġch ann
Ġun its
ĠSp anish
Ġter rit
osy stem
ĠM useum
Ġw in
Ġel imin
Ġc ris
Ġra nd
v ision
Ġfre edom
Ġa st
p ing
Ġdat ab
Ġ2 9
Ġoper ation
Ġfeel ing
Ġconcept s
ĠP aul
Ġdeterm ined
Ġtra ff
Ġland sc
Ġproper ly
ĠF ore
on ic
Ġdang erous
How ever
u x
Ġatt acks
Ġengine ering
Ġredu ction
Ġgen es
Ġn or
Ġinvol ve
ortun ately
Ġcon v
Ġt rib
Ġp ric
Ġconcer ns
Ġse eds
Ġrand om
Ġphys ic
Ġman ner
m al
Ġemot ional
Ġt rou
z ing
Ġex cell
Ġmention ed
A D
Ġd ram
Ġf lex
ĠâĢ ¦
ric ulum
Ġg ender
ĠPh ys
Ġacc uracy
Ġo ption
Ġbel ong
Ġra ce
Ġconflic t
d ed
ĠGe orge
Ġann ual
ĠGovern ment
Ġrad iation
ish ing
Ġdep ending
Ġmeet ing
ĠG ra
ur t
lic k
Ġexperien ced
ĠO nce
Ġinflu en
Ġd ie
nd rome
ĠCour t
ĠOr gan
Ġ9 0
Ġfrequ ency
Ġsol id
angu age
Ġwh om
Ġhelp ed
ĠR ober
il ing
stand ing
Ġ18 6
Ġaccur ate
Ġdis s
Ġamount s
Ġp al
Ġprofess ion
ĠD ata
Ġvict im
ĠS ub
Ġpre t
Ġproced ure
Ġl ung
Ġcru cial
ĠS T
Ġrelig ion
et ies
Ġexp osed
Ġprom ote
pl ace
anc ing
Ġreact ion
ĠPro ject
Ġlink ed
Ġm ath
ĠC ath
ul es
Ġr ound
ut ed
oy al
m at
Ġvul ner
Ġj our
7 5
Ġcl ick
ĠUs ing
in ate
Ġmot iv
Ġdefin ition
w ith
ĠD em
Ġ201 8
Ġgra de
Ġpoll ution
Ġv ot
it z
Ġdiagn osis
C C
Ġmot ion
Ġmot or
Ġin h
ri age
A ccording
and er
Ġn av
b ed
Ġ7 0
Ġs ort
Ġm ist
Ġdisc over
Ġsuff icient
Ġsp ot
Ġgr ant
u ing
Ġg od
ĠIt s
Ġcons ervation
Ġcal c
com es
Ġre b
ĠL a
Ġke pt
Ġgr ass
Ġsh ared
c ers
Ġhelp ing
Ġhe ard
all ed
Ġallow ing
Ġco al
ĠD i
A P
stit ution
Ġb ud
orm al
Ġext ract
Ġman age
Ġmanufact ure
Ġsqu are
Ġmain ly
Ġim pl
Ġhy per
Ġserv ed
um n
ro ad
Ġpres c
Ġis land
Ġinterest ed
u able
Ġbeaut iful
O T
ag o
ĠM al
Ġme at
iver se
ĠB el
Ġple ase
ĠA I
Ġf ol
Ġart icles
ĠN AS
Ġconc lud
3 6
ĠH IV
ĠM ount
k in
Ġwe alth
1 00
ĠS un
g ra
ĠCl ass
ĠJew s
ĠD ist
t a
im al
Ġprep ared
z a
Ġa id
Ġme ant
bo ard
Ġp un
y a
ren ce
Ġcom fort
ĠE very
w ell
ĠA D
ĠAs ia
m p
am s
ok ing
Ġconcer n
ri a
Ġadv ance
Ġp ages
ĠIs land
ĠB ay
ĠP ort
Ġ Ã
Ġcomb ined
Ġegg s
Ġm el
Ġdec ided
Ġh our
esp ite
op er
Ġenh ance
Ġsay ing
ĠR ich
Ġob vious
r ans
Ġdet ection
ĠR em
Ġfarm ers
ac ing
ĠH en
ĠServ ice
Ġaware ness
Ġcons ult
Ġsp ent
ĠT ur
cl usion
Ġsh ip
ĠH el
C on
Ġcont ribute
Ġobt ained
Ġcl os
Ġk ill
Ġsee k
Ġc ast
ĠN etw
is her
t es
Ġindic ate
Ġsou thern
Ġcomple ted
Ġco ord
Ġvol unt
le ase
Ġn orthern
Ġhe aring
Ġer ror
b i
Ġsustain able
ĠMex ico
Ġown ers
Ġcred it
t ion
w ood
Ġcontin uous
ber g
Ġinv ent
le g
Ġrec on
Ġre ached
d es
v is
onom ic
i xt
Ġinstit utions
ect ive
Ġphen omen
Ġfocus ed
Ġtra in
Ġshow ing
Ġvacc ine
Ġcollect ed
ĠIs l
ific ial
Ġf aster
ĠStud ents
augh ter
Ġsupport ed
b all
Ġsat is
Ġveget ables
T hat
Ġs ong
Ġc ere
Ġform ation
p oint
Ġsec ret
Ġatmosp here
3 8
Ġspec ifically
ĠD ef
Ġ200 4
ĠB er
n ic
Ġst ation
Ġpurp oses
ri er
ĠWh ite
Ġsitu ations
Ġh ospital
Ġh op
is hes
ĠTex as
Ġrecord ed
ĠS er
os ite
Ġw est
wh ich
Ġrev olution
Ġprim arily
ce ler
Ġprofess or
H ere
Ġchemical s
ĠM ars
ig ation
ul ating
an ch
R es
Ġpi eces
Ġcontin ues
Ġm ort
ĠSec ond
Ġmaxim um
Ġlo oks
Ġless on
ĠCent ral
as tern
Ä ģ
Ġfund amental
Ġy ellow
ab il
Ġint ended
Ġtechn ical
ĠM et
Ġnot ice
Ġide al
ak er
Ġsy n
Ġperspect ive
am ple
Ġapp oint
Ġm ix
Ġl ib
Ġexist ence
Ġchar ge
Ġgener ate
Ġlarge ly
Ġdep th
Ġp ul
ĠB as
Ġthe r
Ġstra ight
Ġelect rical
C O
ak ers
Ã ¡
Ġfin ally
Ġd ro
Ġveh icle
Ġlab el
Ġident ity
atur ally
er ia
Ġsubst ant
Ġhe ight
Ġ20 20
ar ant
ac ific
Ġauthor ity
Ġoper ating
Ġtox ic
Ġcompon ent
Ġbeg ins
Ġexpl an
Ġ3 5
ĠM ac
oun ced
ol ute
Ġext ent
Ġre new
act ers
ĠAc ad
Ġsubject s
Ġst orm
Ġh it
g l
ĠBrit ain
Ġyou th
ĠJ er
Ġex ternal
et her
Ġbro ther
Ġdetail ed
Ġm aster
ĠM iss
vent ional
Ġkind s
Ġfact s
' ll
Ġjob s
Ġv ital
Ġdrink ing
s es
Ġmonit oring
e k
Ġtreat ments
M any
ear s
Ġp ark
ĠO p
ĠB en
ĠEn ergy
] .
Ġeval uation
ar row
ĠNAS A
ing er
Ġstud ied
ĠA rab
ag s
Ġb ond
Ġoff ered
Al though
Ġl ic
ĠO ld
r as
Ġliqu id
Ġconsequ ences
Ġdi verse
Ġtest ed
Ġb rief
Ġw et
Ġs ector
Ġdesp ite
o oth
ĠTh omas
Ġre in
Ġimpact s
Ġtop ics
Ġf ib
Ġec osystem
os en
N ow
Ġ200 3
f ree
O ur
ist an
Ġincreasing ly
Ġsh ar
Ġkeep ing
ĠM art
Ġset s
R O
ĠS al
Ġsm art
r ations
Ġcertain ly
r ich
r ates
ens us
in ent
ĠL ou
Ġth r
rast ructure
Ġrem ained
Ġfor ced
in ant
viron ments
oss ible
rap y
ĠH ol
3 4
ĠSp ace
Ġmeas ured
R I
E L
ipp ed
Ġfor t
go ing
Ġt aught
ĠM r
ĠD ise
ĠC ivil
ĠC am
ĠVir gin
Ġc ognitive
Ġwond er
Ġoccur red
ag ue
Ġmus cles
at ric
Ġf oss
ro ke
Ġg ar
ind ing
Ġmor ning
Ġsp l
Ġne ural
ac he
Ġar my
9 9
Ġcons ists
ĠNew s
ĠTw o
C l
Ġpotential ly
Ġtyp ical
Ġinit i
Ġw aters
Ġv ast
Ġd ial
Ġdou ble
M S
ĠS en
Ġbir d
c ol
Ġdig est
Ġd oll
ĠMed ical
ri an
Ġnutri ents
Ġpartic les
t ra
Ġper man
d own
U S
in f
Ġcent uries
Ġro ll
Ġcare er
Ġemer gency
ic it
Ġsp end
Ġlead er
Ġl ov
Ġres ist
Ġbr ight
Ġflow ers
Ġe ast
ĠF re
Ġc ert
st ream
Ġexcell ent
Ġst one
Ġsurround ing
e y
W hy
Ġaff ects
Ġra ised
Ġ *
ro id
Ġgener ated
Ġk n
Ġv oice
Ġmet ab
ĠI r
B C
Ġadv ice
n el
ĠEx per
Ġsub sequ
Ġrec y
Ġchar acters
Ġarchitect ure
Ġrespons ibility
in n
ĠD irect
ĠB oth
Ġsal t
Ġw ire
ĠL atin
Ġset tle
Ġse lection
Ġcontroll ed
ol ars
ĠE lect
Ġb ill
Ġlet ters
ĠFr anc
ĠT oday
it ness
Ġf elt
Ġl inks
Ġbi ological
Ġdom ain
Ġdep ends
ĠIn formation
Ġfac ilit
ĠAt l
ang es
ough ly
f ield
w est
Ġref ers
ad o
Ġprote ins
Ġon to
4 8
ĠMus lim
ens es
ĠAr my
ĠMedic ine
Ġminim um
Ġm it
Ġn ations
os c
Ġachie ved
w hat
Ġperiod s
Ġsuggest ed
Ġgood s
Ġw ife
Ġor al
Ġl iver
Ġdom estic
Ġmob ile
res ents
Ġcl im
sp ec
Ġexpl ains
b and
Ġn erv
Ġdivers ity
un k
Ġgra nd
D F
ail s
ĠA N
Ġinst ruction
Ġdr iving
Ġha z
om y
Ġcom ment
Ġflu id
ru st
ĠS om
Ġs ounds
Ġdi am
ĠComm ission
Ġ199 0
Ġother wise
Ġmo ist
Ġcomprehens ive
ĠTechn ology
dition ally
Ġfamil iar
Ġext ensive
ox ide
Ġagricult ural
N ew
Ġcont aining
Ġout comes
Ġb and
ĠE ff
Ġm ere
l i
ĠM ass
Ġtraff ic
ĠL ife
Ġt ro
Ġdivid ed
Ġsol ve
ar io
Ġpre f
o o
T S
Ġl ik
Ġslight ly
Ġhelp ful
v an
Ġplay ed
Ġsur pris
Ġv ent
Ġalgorith ms
ic ed
b ody
Ġare n
os a
Ġfl at
in ations
st ood
int s
Ġbl og
Ġ200 1
act ive
Ġfac ilities
Ġinterest s
' ve
3 7
a el
Ġs in
Ġs end
Ġval uable
Ġtra ined
Ġfollow s
Ġen vironments
Ġexpl ained
Ġk il
Ġth in
Ġn it
Ġcrop s
9 5
Ġj u
Ġgreat est
ak s
M ost
Ġintrodu ction
st ruct
Ġf if
ec k
ath y
Ġcris is
Ġimm ig
Ġform at
onom y
n ame
Ġobt ain
ver ty
Ġrequ est
Ġa str
Ġhar vest
om pl
ĠM il
Ġl ose
as ure
Ġpo verty
ĠFound ation
Ġinter view
ĠQ ue
ut ive
Ġselect ed
igen ous
oth ing
g al
ĠD isc
Ġimpro ving
h i
Ġdel iver
Ġrep resents
app ing
Ġgir ls
Ġmechan ism
Ġne ut
Ġinstru ment
Ġexp ensive
h t
C S
Ġp il
Ġph one
ĠB ible
Ġimm un
Ġrapid ly
ĠO ut
Ġapp arent
Ġinvest ment
ĠJ ud
Ġno ise
Ġpain t
Ġintellig ence
Ġra il
od ing
Ġcons id
al ysis
I ON
um in
Ġgrow n
Ġk m
Ġarg ument
Ġcap able
Ġdecre ase
Ġsequ ence
G o
Ġview s
Ġappear ance
ĠB ook
Ġs now
Ġfru its
Ġprinc iple
Ġcur riculum
Ġw estern
Ġst em
Ġpol ice
ĠF lor
ĠCont rol
w in
Ġpers ons
Ġt ips
ct or
ĠM ult
Ġcl ust
Ġclose ly
f l
Ġr ural
p at
Ġprec ise
Ġintrodu ce
Ġst ars
Ġhapp ened
Ġhundred s
p ass
Ġab use
Ġro ots
Ġpric es
ĠB ur
Ġele v
Ġdiscuss ed
Ġs en
F rom
B N
v ille
ĠS ou
Ġplay ing
ĠP ost
Ġhabit at
Ġcard i
Ġdis app
Ġdist ingu
ĠRober t
ĠB C
ĠP acific
P l
Ġsec ure
N o
I m
ĠB udd
Ġthough ts
Ġconcer ned
Ġb ow
Ġbehavi our
ĠS uch
Ġdisc rim
A meric
Ġw el
Ġpregn ancy
ĠE xt
Ġinter f
ĠA tt
Ġrecogn ized
ĠM icro
Ġgovern ments
um ber
it age
z y
th at
Ġprot ected
Ġconcent ration
ten ance
6 5
Ġ200 2
Ġrec overy
Ġn aturally
Ġsat ell
Ġofficial s
Ġform al
Ġadd ing
Ġlook ed
hip s
Ġrecogn ition
ĠK ore
c hers
Ġed ge
3 9
Ġmed ium
Ġbo ost
Ġd u
Ġdisc overy
Ġst ock
ĠM em
r ors
Ġchalleng ing
ĠSu pp
Ġproced ures
Ġsu itable
Ġwall s
4 4
Ġf irm
ĠS l
ĠSt and
Ġacc ompl
Ġreturn ed
Ġlat est
ro c
Ġveh icles
ĠRuss ian
ĠL ake
Ġfil es
ĠT reat
Ġvis ible
st ate
Ġw ave
is p
ĠEm p
Ġinf rastructure
Ġhyp ot
rol og
ĠR ef
Ġsuff er
ĠN av
f all
Ġp ray
Ġwe ar
Ġintern et
c ript
al se
Ġsuff ering
ĠGo ogle
Ġdoc uments
Ġdeath s
ĠT em
in du
Ġt ried
Ġre form
Ġport ion
Ġpr ison
ĠInst ead
Ġfeel ings
it ative
ĠAn other
Ġf le
asc ular
ĠJ ose
ĠH am
Ġcl oud
Ġclaim s
ĠC D
ĠL and
Ġasse mb
ĠN or
bur g
ĠP sych
ĠEng ine
ar ter
ĠW omen
Ġtit le
V ID
ate ver
ĠSm ith
Ġappe ared
Ġwe ap
Ġsens itive
Ġemploy ees
Ġcl osed
Ġp ig
Ġres idents
ĠM iddle
Ġp u
f low
A b
ĠSe a
Ġt un
Ġsy ndrome
Ġcont em
Ġs ed
Ġd ut
ĠW ind
Ġac celer
r id
idd en
Ġ201 9
Ġdirect or
ĠD et
3 2
âĢĻ .
Ġch ief
sc ale
Ġmove ments
Ġp aid
ic ks
Ġmedic ations
ĠRuss ia
L M
ĠCath olic
Ġst ages
Ġhealth care
Ġjust ice
Ġle aving
? âĢĿ
ir us
Ġcircum st
Ġless ons
An other
ĠM ont
if ies
Ġrecogn ize
Ġfl oor
Ġregular ly
ĠCar ol
Ġs ides
Ġmass ive
Ġthe ore
Ġinf ected
Ġcons cious
Ġcand id
Ġinflamm ation
Ġinteract ion
Ġ4 5
Ġg un
Ġdatab ase
Ġen able
an es
ĠS ov
Ġcor por
ex p
ĠHen ry
ra cy
ĠF am
M ore
ĠU p
Ġprot ocol
Ġmor al
ĠS af
Ġs an
if orm
Ġadv oc
Ġimplement ation
Ġst ated
Ġabs olute
l ers
Ġla un
ĠD el
el lect
Ġ Î
Ġst ret
Ġex change
Ġal t
Ġmill ions
Ġneigh b
ul in
ĠK now
plic ated
il ed
Ġcol ors
Ġp ure
ol ve
Ġsign als
it ors
Ġag es
Ġinc hes
Ġhor se
ĠEx pl
Ġbusiness es
IN G
Ġspirit ual
am ics
ĠL ike
Ġo d
ber t
re m
ĠSt e
r us
Ġind ex
Ġk new
Ġing red
Ġf ixed
ere nt
ĠTh rough
ĠM ake
Ġcou ple
yp es
Ġdescrib es
pp ing
ocr atic
ĠChar les
Ã Ń
Ġshe l
be ing
as p
Ġeffect iveness
rain ing
os al
r ants
Ġequ ival
Ġfund ing
Ġder ived
ĠSc ient
Ġtrans ition
Ġam b
Ġevalu ate
Ġad equ
Ġl ibrary
Ġs ick
Ġsecond ary
8 5
Ġtrans mission
Ġch ain
Ġinc l
Ġp ump
Ġsold iers
ĠS um
Ġun known
Ġagricult ure
Ġn arr
st ruction
ol a
av a
l ong
Ġprodu cing
m as
Ġadop ted
alle l
ĠP ower
Ġra ise
cl ing
Ġin ject
ĠP C
Ġpl ays
ot a
Ġt ail
Ġreve aled
Ġun like
Ġprevent ion
ĠStud ies
Ġhigh light
Ġsubst ance
Ġr ub
Ġph r
Ġacc omp
cul es
Ġconsist ent
Ġch apter
Ġpo et
as ive
Ġentire ly
ĠHist or
Ġlat ter
Ġpart ies
H O
Ġprom pt
D o
Ġopin ion
in et
es ity
ĠW ild
Ġgu arant
ĠComp any
Ġ <
ag ers
Ġlandsc ape
Ġleaders hip
ol f
U s
Ġrest rict
Ġimp ossible
Ġer a
Ġcall s
Ġimprove ment
ĠO x
Ġtalk ing
uild ing
Ġmanufact uring
Ġne uro
7 6
Ġpro ve
Ġcreat ive
Ġh unt
ĠL anguage
ĠMan agement
Ġcomput ers
4 6
Ġpre m
Ġext ended
at o
Ġcon ventional
Ġall erg
Ġlif est
Ġsim pl
ĠEnvironment al
Ġap art
Ġb le
ĠR ights
ĠL ibrary
ĠF e
ĠB et
Ġn arrow
Ġd ental
Ġmy th
Ġexpl o
Ġbud get
g ent
Ġposs ess
ib ilities
3 1
8 8
ĠG roup
Ġrec ip
Ġansw ers
k a
Ġunder stood
Ġsurv ival
d den
ĠN ature
Ġtra d
Ġnorm ally
Ġd ensity
og ue
al ian
Ġfert il
Ġste el
Ġtou ch
Ġposs ibility
Ġposs ibly
Ġint ake
at tle
ab ric
Ġstrugg le
le ments
Ġco ff
Ġim per
Ġn urs
Ġrem ote
Ġsuccess fully
Ġguid elines
Ġd edic
or gan
Ġto ler
m ary
Ġline ar
Ġg all
ĠI d
pl ing
Ġfl ight
Ġorigin ally
ang ed
ter ies
D r
I nd
st on
G en
Ġal ign
Ġcompar ison
ĠR ob
l a
Ġf ill
C T
ĠA p
Ġworld wide
Ġfig ures
Ġrout ine
Ġwor s
Ġunder lying
l iam
ĠLou is
ad a
Ġantib iot
ĠD iv
Ġsupp lement
Ġcapt ure
Ġy ield
n ormal
Ġrat io
Ġst ored
ĠW ell
Ġrepe ated
Ġspe aking
Ġaccept ed
ĠM o
Ġprep are
Ġn an
Ġ3 1
ot he
L E
Ġcar s
Ġwind ow
g ence
oles ter
ĠP ers
ĠVirgin ia
Ġfound ation
Ġbenef icial
Ġrepresent ation
on a
Ġdec line
Ġrob ust
os ph
ĠA lex
Ġwor se
Ġreg ional
. |
Ġcomp osition
Ġg ather
act s
Ġharm ful
Ġrespons es
Ġsu dden
ra g
re ed
as er
5 00
Ġb rown
Ġread ers
w ar
ct ic
ad d
l ig
om ach
Ġcho ices
et t
Ġm amm
e an
Ġst ick
ot o
Ġm oon
Ġpict ures
Ġopen ed
Ġb ones
a it
Ġsur f
er als
Ġmed ication
ter ing
Ġab und
Ġobject ive
Ġact s
Ġloc ations
Ġdist rict
Ġout l
k i
Ġlist ed
Ġeng age
Ġd ream
rop ical
ag ues
Ġvill age
ĠDes ign
ash ion
4 7
ans ion
Ġforest s
Ġsu c
t ic
y e
ĠAb out
ĠD iff
Ġair craft
Ġwarm ing
ar ia
Ġrem aining
ab its
Ġc row
D uring
ĠI N
Ġsent ence
ĠC le
ĠRe view
or ter
Ġm ixed
hem ical
Ġparam eters
Ġa f
Ġagree ment
ot ed
Ġa er
Ġle af
Ġpl ate
ĠB ro
Ġstart s
ĠComm on
Ġt al
Ġdemonstr ated
Ġprodu ces
Ġgl ob
ĠFlor ida
Ġmain tenance
Ġar ms
D P
Ġmechan isms
Ġm ac
force ment
pr ise
olester ol
Ġaccount s
Ġg ap
Ġmar riage
Ġhous es
ra ction
Ġa w
Ġbat tery
ĠOff ice
im er
Ġadminist ration
Ġhand le
Ġwild life
Ġexpress ed
n o
Ġcreat es
D e
Ġsp orts
Ġaff ord
Ġprofession als
Ġb an
ĠT er
Ġprogram ming
liam ent
ĠF ederal
Ġto w
O ther
rit ing
t age
Ġper ce
Ġd ust
5 5
Ġfeed back
ind er
Ġf ell
Ġdoct ors
Ġun less
Ġmount ain
ĠK en
Ġinj uries
Ġpret ty
Ġstudy ing
Ġsch olars
ĠG ood
ĠAn y
Ġun iverse
Ġsett ings
Ġa qu
ĠT HE
Ġjour ney
ĠC are
Ġch art
ĠFurther more
Ġapp rec
ĠR ad
ĠL abor
Ġunc ertain
Ġp apers
Ġanc est
Ġsurv ive
Ġdisc ipl
ĠMore over
ĠProf essor
Ġlay ers
Ġth or
ĠV is
ĠL eg
th rop
ĠIS BN
Ġinteract ions
Ġz ero
Ġass istance
Ġelect ronic
Ġcour ses
Ġdifficult y
Ġdec ade
b orn
8 6
Ġind eed
Ġas pect
Ġtw ice
Ġgreat ly
Ġc atch
4 9
Ġrem ark
Ġdesc ription
Ġ199 9
in i
Ġcult iv
Ġb io
ĠL ong
Ġinter vention
Ġs ell
Ġm useum
R e
ĠSov iet
Ġag ents
8 9
T e
ur d
Ġmar ine
ĠCon stitution
Ġt iny
Ġdo or
Ġtell s
Ġsh ift
z en
h ist
Ġdist ributed
Ġcirc uit
Ġsk ill
Ġw aves
and a
Ġen ab
ĠUS A
Ġswe et
um s
Ġra w
ĠPro v
Ġmole cules
ĠE v
ost er
Ġre ject
iz er
Ġf illed
Ġart ificial
Ġhapp y
Ġover l
ĠGl obal
g u
ific ations
m ic
ĠPar is
in ity
Ġchild hood
Ġdep os
ĠCol umb
Ġrepresent ed
i very
es ter
ĠO F
st ract
Ġcam era
ĠComm it
ct ive
lud ing
Ġvari able
ce l
or row
Ġcircumst ances
Ġag encies
I P
ic ians
at ial
ĠEx p
ĠL ab
Ġland s
Ġclass ification
U R
z ed
ste in
Ġun p
Ġdyn amic
ĠCO VID
n y
ĠY et
Ġopen ing
u nder
us hing
Ġg al
ic an
in ating
Ġun s
Ġfail ed
Ġ198 0
Ġsee ing
Ġsc ene
7 7
u a
Ġshe ll
Ġdec ide
Ġw ants
Ġdown load
Ġal le
Ġcare fully
ĠTh ose
âĢĻ ,
Ġint ellect
we ight
a ud
Ġ5 00
e per
Ġlim its
l ast
ĠFr ank
ĠCanad ian
oc ation
Ġp ull
Ġslow ly
Ġcol our
Ġindic ates
ic ide
Ġbro ken
Ġtru ly
.. ..
Ġsh aring
Ġde ploy
. âĢĻ
Ġcrit ic
ĠB re
Ġconst ra
I L
ĠAn n
Ġl ots
Ġk it
ĠDise ase
Ġaud ience
Ġbehavi ors
Ġopp osite
ed u
ĠP eter
Ġgra v
M y
Ġmach ines
Ġemot ions
ult s
rib ed
s is
w ing
ĠAustral ian
ol s
Ġm aps
Ġtra um
ĠJose ph
ĠN ations
Ġp air
ĠNetw ork
Ġcomp are
ĠSt reet
ĠI ll
ab ul
Ġmon itor
ĠN atural
Ġfew er
Ġpre val
Ġsupport ing
ĠA S
Ġestim ates
E P
Ġmark ed
ĠFin ally
Ġs od
on al
itud es
I M
Ġprinc ip
Ġst able
Ġtro ops
ink ing
Ġdedic ated
Ġw itness
ĠT or
ĠT ime
Ġoptim al
Ġres olution
Ġinstit ution
Ġult imately
Ġfunction al
oc racy
ĠV ict
Ġobserv ations
p et
ĠG old
Ġdoub t
Ġauthor ities
Ġresp ir
Ġ >
r ons
Ġconsum ers
Ġr ank
r ont
Ġex ists
in ction
Ġst omach
Ġsk y
Ġfl av
b ut
ĠStud y
Ġvessel s
ĠSt at
Ġfoss il
ĠS k
Ġdo i
w orld
um es
Ġ3 00
Ġvirt ual
Ġpers ist
Ġrel ax
t hen
Ġman aged
Ġperman ent
Ġrepl aced
Ġacc um
Ġneigh bor
Ġch osen
N N
Ġac ids
Ġpres ents
h and
Ġdel ay
ĠE ss
ĠâĢ ¢
Ġinsect s
ell ed
ĠOn ly
le ts
Ġw ish
Ġorgan ized
Ġsupport s
y les
ĠRep ort
vent ions
h ma
Ġdatas ets
Ġwalk ing
ĠP ub
Ġa x
Ġbe ar
Ġlabor atory
ĠSt ep
ĠH aw
Ġimmedi ate
Ġvolunt e
Ġsm ooth
iction ary
b ra
Ġ197 0
Ġconf idence
Ġf iber
Ġf ly
b ing
k es
en a
M L
Ġcult ures
i ology
Ġcor n
Ġf alse
ĠCl in
ur rent
b an
Ġf asc
Ġrel ation
Ã ¼
Ġin hib
Ġrespect ively
Ġnew sp
Ġmaint aining
Ġmagn etic
Ġest imate
Ġread er
g ans
Ġcalc ium
ĠD an
Ġnecess arily
on ed
Ġc art
Ġm ild
Ġpar allel
Ġcut ting
Ġin ner
or ous
Ġreg ist
Ġphilos ophy
Ġn ine
Ġreg ul
Ġdeb ate
Ġeth nic
ĠR ome
Ġac know
ĠH all
he rent
ĠC y
C ont
Ġlifest yle
Ġ199 8
f rom
Ġun able
ĠI P
Ġs ight
S e
or al
Ġh us
Ġgl uc
Ġthous and
w ord
Ġatt end
er ior
z il
ph one
Ġclos er
Ġequival ent
Ġcomplex ity
ĠG et
Ġfl o
ĠF orm
h op
F igure
Ġun iversity
ĠAd d
Ġpr on
f ortunately
Ġreg ulations
Ġwhere as
E n
Ġdatas et
r ine
Ġvulner able
re land
Ġbig gest
Ġconc rete
Ġvari ables
Ġres erv
Ġ18 9
ipp ing
Ġcoff ee
N ot
Ġelect ron
ĠSou thern
Ġcommunic ate
us es
r d
Ġd aughter
Ġwrit er
Ġinstruct ions
it ivity
Ġf abric
ap ed
Ġdes ire
Ġser ver
ĠS ol
Ġman if
at al
Ġexperim ental
Ġb rand
Ġexam ine
Ġhe ro
st one
I R
Ġw ww
Ġdef ine
ri ers
ic ago
Ġn et
R ead
Ġch olesterol
Ġhor iz
ĠK h
Ġyoung er
Ġconstit ution
Ġman ip
ĠB ank
Ġp up
Ġbreat hing
Ġpurch ase
Ġdestroy ed
Ġh abits
Ġd ent
m l
m od
om ic
Ġstand s
ĠE nd
Ġtransport ation
Ġemploy ed
em ia
Ġsm oking
âĢ ĺ
ĠM ad
ĠC ult
Ġf ract
se y
Ġg one
w o
ell a
Ġarr ived
Ġn erve
Ġv oc
Ġd in
Ġe pid
ear chers
Ġjo in
br idge
Ġsp aces
on ia
ĠO cean
Ġrel iable
c alled
oc y
Ġen ds
Ġconn ections
Ġte a
c her
Ġredu ces
Ġlist en
Ġaim s
t op
h av
i ability
Ġro of
Ġdraw ing
Ġfight ing
Ġl ies
ic ious
S S
x ts
rib e
Ġfeed ing
ĠRe volution
ĠP M
Ġcateg ories
S ince
Ġre ly
Ġun us
ĠH ome
dition al
c a
Ġfound ed
Ġpercent age
r ating
ĠM a
Ġcolle agues
ĠG al
Ġne ck
ir ty
Ġmar ried
ins on
Ġstand ing
ĠI reland
ĠIt aly
Ġmin ing
ĠM ill
ic on
Ġemb ed
ĠComp ut
Ġfram e
Ġse gment
az ing
it an
rodu ction
Ġhyd rogen
Ġcor rel
Ġpsych ological
it a
Ġcon clusion
c ons
ĠCommit tee
Ġhous ing
Ġmeasure ments
ri x
Ġour selves
Ġag ency
Ġtrial s
Ġcomp ounds
ĠAd minist
Ġsuc ceed
Ġr ig
Ġturn s
wh ile
est ed
Ġphot ograph
Ġsub s
Ġchann el
Ġth y
ar n
f ish
Ġcont ained
st s
Ġocc asion
Ġtw enty
Ġcont amin
L A
ors es
Ġorgan isms
Ġ18 5
C D
he ast
Ġr id
Ġ3 6
Ġpro of
Ġus age
Ġcompet ition
Ġe ld
Ġinvol ving
Ġresult ed
Ġc os
Ġro w
Ġatt ached
Ġsuppl ies
ĠN orthern
S ee
Ġb order
ĠC amp
or ph
0 5
Ġreact ions
Ġz one
Ġc m
is ters
ĠO h
8 7
Ġcustom ers
ro vers
u ke
Ġmem br
esp read
ĠCan cer
Ġeas tern
ĠT imes
Ġmod e
l ar
Ġob esity
u ps
ĠP y
r ary
B S
Ġsh ut
Ġb read
it t
Ġpre v
St ud
ĠP ract
Ġt aste
Ġre cept
he ther
ist ical
Ġterrit ory
Ġve ter
Ġch rom
Ġris ing
Ġmat ch
Ġacc ident
Ġsh op
ĠF ree
Ġcar b
ĠEmp ire
Ġdel ivery
Ġparticip ate
Ġfrequ ent
Ġv ote
g ments
B l
Ġinteg rated
ant a
4 2
ĠC ap
Ġne ur
Ġr hy
s uch
Ġdist urb
Ġsc ore
ĠSc ot
Ġdi oxide
Ġa head
ĠAd ditionally
C A
Ġpow ers
ut ch
Ġ196 0
ĠRich ard
ĠM ag
Ġphys ics
Ġpolit ics
imens ional
ĠR oyal
Ġbelief s
Ġrob ot
ĠMod el
Ġindepend ence
Ġtrans p
Ġmeasure ment
ir ds
Ġcr ime
ĠCol or
ĠS ing
te en
ĠW ood
Ġf u
Ã ³
m aking
Ġso le
ĠSp ain
U N
Ġgre w
Ġent ry
C an
Ġt all
Ġm ent
c omm
rit is
Ġwill ing
v ised
Ġknow s
Ġquant um
Ġa th
Ġinstru ments
Ġbr idge
ĠCarol ina
Ġm ice
Ġemploy ment
Ġpresent ation
f it
ĠVal ley
ion e
d r
ĠF ort
0 1
I A
Ġpo ison
Ġfe ver
n am
ĠE th
Ġbl ocks
Ġdiagn osed
or a
Ġsh if
Ġins urance
Ġsur ve
Ġm m
Ġwh atever
te xt
Ġ Ð
Ġpos itions
ĠSc iences
Ġv s
Ġoper ate
i h
ĠP enn
he red
Ġassoci ation
Ġst roke
Ġsh ips
Ġm eth
Ġexp ansion
op ic
Ġjo ined
Ġconstruct ed
Americ an
Ġgreen house
Ġgener ations
Ġt ank
Ġnear by
Ġcomput ing
Ġsche me
ad ing
cy cl
h ow
Ġadminist r
Ġref uge
Ġleg s
Ġadvant ages
Ġsuper ior
ĠEar ly
as ters
anc hes
Ġoff ering
pl ant
ĠAcad emy
ever al
Ġdeb t
ĠAg ricult
Ġt ight
Ġ7 5
Ġexplan ation
ĠH y
it ter
ch ar
r ial
u gh
Ġcom ments
Ġdep artment
ĠOp en
u h
ĠW here
ir t
4 3
Ġplay ers
P e
us iness
Ġsupp osed
Ġte en
Ġanal ys
Ġdi ag
ĠP an
Ġ199 7
Ġconsid ering
ult ane
7 9
el ess
Ġsh ot
Ġmiss ing
p an
Ġhold s
Ġiss ued
Ġb ot
ĠSc ott
ym ph
Ġf ashion
ut s
Ġc ats
Ġsubst ances
is k
ĠSt r
e en
es is
Ġout bre
ĠBo ard
Ġimplement ed
Ġag ent
Ġconsum er
ap h
ĠKe ep
Ġsm oke
Ġcl ot
Ġge omet
4 1
Ġvol tage
Ġtem por
Ġwid espread
Ġte xts
Ġen ables
ĠMich ael
Ġstim ul
ĠG ard
Ġfund s
oc c
% .
Ġdef e
Ġarr ange
Ġaccess ible
R A
ĠCl imate
L et
Ġfor get
% )
Ġle ct
ĠE qu
Ġelect ro
Ġstrong ly
et ime
Ġr u
ĠH ave
Ġtiss ues
Ġm os
Ġmark ets
Ġs ke
ĠCh icago
ite ly
Ġsp ok
Ġindustr ies
ĠD espite
ak ed
Ġrecommend ations
Ġstr ing
m edi
Ġm and
ĠN ative
Ġsignific ance
ĠD ig
r ite
g ical
Ġrout e
Ġevery day
Ġor ient
ain e
I G
Ġlaun ched
us ing
Ġpain ting
Ġp ra
ĠA cc
ent ed
ear ing
Ġsw im
Ġguid ance
a very
Ġshe et
Ġco vers
ish ment
ĠN on
he nt
Ġh ole
Ġsc ript
Ġrun s
al a
ro x
Ġer rors
Ġfl ag
____ ____
Ġput ting
Ġdra wn
e enth
Ġcateg ory
Ġunder t
ĠA ccess
du le
Ġon going
Ġpass age
ure au
br id
Ġparticip ation
Ġmat ters
igh ter
Ġf old
Ġg ram
Ã ¶
Ġsp ending
Ġbr ings
abul ary
Ġrep air
Ġdesign s
ol ving
Ġre ven
ĠE U
Ġs ections
Ġwas n
os ion
ĠBra zil
Ġch ick
Ġcrit eria
Ġcry st
Ġlegis lation
Ġworks he
Ġcontrol s
O f
Ġre ward
Ġconf ig
Ġdes ired
Ġcount y
ĠW ik
Ġst ability
Ġn one
Ġdiv ision
Ġcomp osed
6 6
Ġstruct ural
ĠA P
Ġadequ ate
Ġsatis f
Ġexerc ises
Ġ3 2
es ides
it tle
Ġtra ct
Ġhe m
us hed
edi atric
Ġme al
oura ge
ident ial
est ion
Ġcollabor ation
Ġmechan ical
um ps
ixt ure
m es
Ġdang er
Ġc av
in ally
Ġor gans
ov en
Ġf er
O C
Ġins ulin
Ġa ward
Ġbreat h
Ġsurf aces
Ġcent re
ĠA ge
cl ass
ĠE astern
ĠB ab
Ġ15 0
ĠB rown
Ġc up
Ġsac r
Ġful f
Ġmet ers
ĠP rop
Ġthe ories
c ar
Ġindic ated
Ġkid ney
Ġben ch
ĠIt alian
Ġfor th
b les
ĠH oly
Ġdep art
ĠCon n
ĠGe org
Ġcommit ted
Ġpart ner
O L
Ġend ed
Ġfocus es
Ġcon ven
Ġrece iving
Ġmin erals
Ġinstall ed
id ity
Ġag reed
ree k
Ġne ither
Ġbl ind
act ion
ĠII I
ĠVict or
Ġst rict
Ġr ice
Ġgluc ose
op eration
Ġappro ved
az ine
Ġro les
all s
Ġvide os
Ġtri p
Ġhold ing
Ġ199 6
Ġout come
Ġb low
ĠGu ide
Ġdam aged
ir ation
Ġb anks
Ġvirus es
Ġrel ief
Ġcomp ris
Ġanaly ze
g s
ĠAd v
Ġcap abilities
ĠC reat
Ġcol umn
Ġad vert
Ġbut ter
ĠW orks
ĠM ethod
ro oms
Ġprop ortion
Ġp ed
Ġr ivers
Ġbur ning
Ġprov en
Ġhard ware
us al
Ġpublic ation
Ġphot o
ia h
el i
g ov
Ġv ac
Ġtrans lation
Ġele ction
Ġcom plicated
Ġhistor ic
Ġsatell ite
ĠB ig
Ġt ons
F irst
ĠPart y
ost ic
Ġcapt ured
Ġann ounced
Ġim plications
Ġst reet
ren cy
et ics
Ġdecl ared
Ġh olid
Ġmoist ure
ĠIr ish
Ġdepend ent
I nt
Ġk ne
Ġcent ers
Ġvictim s
Ġconstant ly
Ġmole cular
Ġ ille
Ġintellect ual
Ġsee king
Ġf urn
Ġsome what
Ġcont rovers
Ġb oy
Ġinvestig ate
ond s
a ired
ĠM er
Ġd ys
Ġr ing
ĠC re
Ġear n
acc o
Ġm ood
Ġbo ys
ĠT ake
Ġinfluen ced
Ġmess ages
ib l
Ġphenomen on
Ġunivers al
Ġb iod
Ġab and
ĠE st
it amin
Ġang le
op es
ĠKing dom
Ġident ification
op les
Ġent ered
Ġstat istics
ut rition
Ġwor ry
Ġen emy
g ers
Ġarch ae
per form
ĠPl ant
Ġc ards
ĠF ace
Ġ6 5
ĠBe fore
Ġart ists
Ġint ense
pt ions
7 1
Ġask ing
Ġneg ot
ag raph
Ġdest ruction
Ġt urb
ap se
Ġsubstant ial
Ġst re
am ins
r ane
Ġtur ning
Ġf ro
Ġfac ility
Ġshar p
Ġrenew able
ult y
o ir
Ġspect rum
Ġbab ies
Ġsubsequ ent
Ġprevent ing
Ġf ed
Ġexam ination
Ġph arm
Ġshap es
Ġfem ales
Ġf ix
ĠServ ices
qu it
ad ed
ad y
Ġfil ter
Ġvol can
Ġprepar ation
ĠAtl antic
R ec
Ġreal ize
k ins
Ġt ube
Ġt ub
Ġm ales
th ritis
ig ate
Ġtrou ble
ĠP olic
an i
Ġwa it
Ġnerv ous
Ġnum er
ĠS il
Ġb ath
Ġlegis l
en ess
Â ·
Y our
Ġpl us
Ġmort ality
Ġsim ultane
el esc
L ear
Ġsc an
ound ed
Ġ199 5
Ġp ush
ig an
Ġcal ories
he alth
Ġcontem porary
Ġconsider able
Ġprov ed
Ġconvers ation
Ġh un
Ġlov ed
Ġmetab ol
Ġit em
omm od
Ġpar as
Ġobs erve
re y
Ġautom atically
Q u
Ġro cks
ĠMart in
ĠInd ians
ot ton
ĠSec urity
ĠY ear
Ġdo se
ot es
Ġmere ly
ĠFam ily
Ġattempt s
M P
Ġhon or
Ġwith d
Ġpregn ant
Ġthem e
Ġgr id
Ġp ounds
ĠOx ford
ĠTh ough
er ies
ĠW ord
Ġab normal
Ġfac ing
Ġinterpret ation
ive red
ars h
Ġs ought
Ġremov al
Ġp y
o om
air y
Ġseem ed
Ġeng aged
Ġabs ence
Ġcare ful
Ġearth qu
ĠV er
Ġcoast al
ollow ing
Ġdiscrim ination
O ver
C omp
M ed
Ġp and
Ġconfirm ed
Ġhus band
Ġrespir atory
al ities
Ġext end
Ġcharacter ized
am ing
Ġed ition
E E
Ġsp atial
E ven
Ġfor g
Ġreve al
Ġstrong er
Ġgradu ally
Ġpe ak
the less
ĠH ill
Ġim aging
i ary
Ġrare ly
Ġpl enty
ual ity
Ġform ula
C H
ari os
im ents
Ġdoll ars
ĠS at
U T
Ġdef ense
Ġbeaut y
Ġvari ation
ative ly
Ġar ts
Ġfour th
Ġprob ability
ĠCommun ity
ĠP o
ir al
ur ric
Ġmod ified
Ġcr im
Ġint est
Ġopp osed
Ġcomm ission
Ġtarget s
g reg
io x
8 4
Ġbre eding
Ġsw itch
Ġsecond s
ĠN az
p es
Ġover come
Ġweap ons
Ġh orses
ĠSom etimes
row ing
Ġthan ks
Ġexpl icit
ĠT V
Ġingred ients
Ġn est
Ġg ained
Ġserv ing
Ġidentify ing
ĠSpec ial
ac her
Ġbi ology
Ġteam s
Ġmaint ained
7 3
Ġpriv acy
Ġde aling
ro at
ail ed
Ġessential ly
Ġac ute
ĠAs ian
ĠV iet
O nce
Ġmov es
M A
Ġart ist
Ġown er
it als
Ġnew ly
ĠAm ong
Ġinvestig ation
ĠA gency
ĠP op
Ġs ession
Ġcl othing
8 3
os h
Ġass ume
Ġsh ock
s m
ist ed
ĠL ib
h tt
ĠS up
y al
Ġrec over
Ġpass ing
Ġn ose
Ġexcess ive
ol n
ĠZ eal
ru ption
Ġpro hib
Ġfavor ite
Ġar rest
ere n
ĠM S
ĠRes ources
Ġper ception
Ġcirc le
ĠR om
ex ample
Ġclass ical
Ġdifficult ies
Ġdem ands
is dom
Ġsil ver
pl ed
Ġj ump
cycl op
ak istan
Ġfarm ing
Ġoffic ers
her ic
ĠL ow
ot ype
Ġesc ape
Ġimprove ments
Ġsign ed
B ecause
out s
d f
oh yd
Ġfair ly
Ġinterp re
he imer
Ġun iform
Ġin n
Ġinc red
Ġbring ing
Ġbr anches
Ġcop per
Ġins ert
Ġir rit
ĠWh o
Ġcomb at
Ġt ut
ĠSu per
Ġinform ed
Ġobserv ation
Ġbe ings
Ġ id
Ġd im
D on
Ġd rain
ĠR esp
Ġbi om
Ġserv es
Ġbr anch
Ġcorrespond ing
rou s
ov ascular
Ġmathemat ics
Ġmicro b
ch arge
ĠS ign
Ġprom inent
H D
Ġess ays
Ġcarry ing
Ġmet ric
Ġlearn ers
t rans
ĠM D
il ation
Ġspl it
Ġde eper
Ġco verage
Ġvari eties
Ġin her
Ġprincip al
ill a
ĠP et
ĠM el
ra v
Ġtown s
Ġcont ribution
og ether
ĠInd ust
ĠCh ange
am ination
ĠZeal and
ĠChrist mas
o ids
Ġtreat ing
Ġdis aster
ple te
n et
ĠChe ck
Ġequ ally
ast y
Ġcl ar
ĠM ach
Ġplan e
ol esc
Ġhe ating
ĠD ar
Ġsl avery
ren e
Ġclean ing
ĠYou ng
Ġch lor
Ġo v
Ġem pt
Ġencoura ged
7 2
Ġclaim ed
ĠAn alysis
ID S
ĠD en
hy d
Ġpar ad
Ġvisit ors
Ġobject ives
ri end
Ġout er
C E
Ġwrit ers
Ġjud ge
Ġla unch
8 1
Ġscreen ing
lish ing
Ġsens ors
Ġexam ined
Ġover w
Ġconsider ation
Ġdel ivered
Ġl ie
ĠDist rict
per or
Ġfun g
ĠPr inc
Ġequ ation
Ġconcer ning
Ġinnov ation
Ġs ales
Ġis lands
epend ent
Ġp it
Ġthere by
Ġ \
Ġm ic
ask a
Ġenc oun
Ġor bit
Ġtheore tical
Ġphot os
Ġr oughly
Ġknow ing
Ġtrend s
Ġg ut
ĠIsl am
ian a
Ġrad ical
Ġev il
ost on
Ġlimit ations
Ġph osph
Ġcre w
Ġra cial
Ġint ent
Ġdet ected
Ġdr iven
ĠE r
Ġche st
Ġtem ple
Ġinf ant
p rodu
se mb
Ġcomp ens
Ġplan ned
ĠAdminist ration
ĠAN D
ĠHe b
Ġst ead
Ġex clus
Ġthreat s
ĠE p
spec ific
Ġmicro sc
Ġdesc ript
7 4
ĠSec ret
ĠG rand
com ing
P R
ĠB ill
O r
Ġpan el
ha ust
Ġflow er
Ġmin eral
Ġhorm one
Ġro ads
Ġinsp ired
Ġgra d
es h
Ġelimin ate
ess ions
Ġneighbor hood
S u
re qu
ĠDo es
ĠL ist
v ard
Ġgu ard
Ġsens or
ot al
Ġfall s
Ġ4 00
Ġunus ual
Ġgal ax
Ġsc ores
inc luding
Ġinit ially
Ġcomfort able
Ġpro ceed
Ġmathemat ical
Ġflow s
inc oln
Ġscen arios
og a
ĠCent re
Ġex ceed
ĠLear n
Ġassign ed
ĠSystem s
ĠR ock
Ġhe nce
al m
Ġsc ar
ou nce
Ġsol ving
ip edia
Ġexpl oration
Ġad m
Ġus ual
ook ing
Ġimag ine
Ġ )
ĠSw ed
Ġ19 50
b ar
Ġheav ily
Ġacc ommod
Ġcon j
ĠArt icle
Ġmin ute
Ġast hma
Ġl ake
ad der
c hen
Ġstate ments
Ġdecre ased
Ġla id
Ġnit rogen
Ġaud io
ont al
Ġdyn amics
am ine
Ġsp in
ĠD ou
Ġar ray
Ġlight s
Ġcl ient
Ġdiam eter
Ġg ro
ĠM oon
Ġhapp ening
ĠC ross
ĠJ ac
Ġmeas uring
d oor
Ġlog ic
v in
Ġint ensity
ĠF igure
Ġhe aling
pr int
Ġsp ort
ĠEngine ering
ab eth
Ġcrim inal
i ological
Ġinf ect
Ġfac ed
Ġsu s
Ġmar ks
Ġfish ing
ĠL o
Ġrest ric
Ġpo em
erv ing
Ġw ine
' m
ĠAng el
ĠCur rent
Ġprint ed
Ġprop ag
Ġhaz ard
ĠSim ilar
on ym
an o
se ll
Ġch am
a o
Ġ199 4
ĠG r
Ġper m
Ġcook ing
8 2
Ġwor st
Ġinteg ration
Ġisol ated
Ġelect ed
Ġsen ior
Ġscient ist
Ġbre ed
erson al
Ġord ered
L e
Ġfin ished
O D
ĠN ever
y r
Ġh oles
Ġh idden
Ġdec or
ĠD om
ĠF und
Ġany where
Ġexcept ion
d ef
or ic
Ġbig ger
Ġb omb
ĠM en
A m
ri z
Ġcorrect ly
Ġfl our
Ġm old
ĠDirect or
ic ate
Ġun w
Ġsc hed
og rap
Ġal ter
Ġres id
Ġpl ot
Ġgra in
ra ys
j ust
ĠCol l
ris on
Ġab stract
ĠSaf ety
Ġadd s
r ance
aw are
Ġsuff ered
Ġdef end
Ġd ates
Ġh oney
re ction
Ġrem ind
6 9
Ġm g
Ġsens itivity
ĠT re
ĠTh ree
Ġdis rupt
Ġreg ulation
elf are
Ġt ropical
Ġs izes
Ġc ash
Ġp estic
Ġliter acy
Ġphysic ian
Ġc ab
Ġin equ
Ġst ations
Ġens uring
Ġarg ue
un icip
Ġev olved
Ġsche dule
Ġprovid er
Ġdirect ed
v a
Ġro se
s he
A A
Ġins ights
Ġab ilities
ĠFore st
ĠC ast
Ġpred iction
Ġt ack
Ġreason ing
Ġwar ning
Ġtele vision
Ġ vel
Ġf est
Ġcom plications
Ġpo ol
ĠColumb ia
Ġh osp
Ġcor ner
ro t
Ġprocess ed
Ġaccomp an
Ġfind s
al i
ĠOn line
Ġl es
Ġinnov ative
Ġflex ible
Ġed itor
Ġearl iest
Ġmodel ing
Ġv an
ĠA ff
ort ed
Ġsus cept
Ġacqu ired
Ġter ror
C P
ou red
ict ed
Ġt ens
Ġc ort
Ġst ores
ĠO per
ig ue
Ġra b
E d
ĠS und
as ant
ĠP akistan
Ġplay er
Ġcover ing
ac ent
Ġm ixture
m m
ang le
Ġvoc abulary
Ġcy ber
C R
Ġinter face
Ġr ational
Ġkil omet
ĠJohn son
it arian
ĠOrgan ization
Ġaut hent
Ġengine ers
Ġam pl
Ġstreng then
Ġmay be
Ġconsum e
it ory
Ġvari ations
ĠF our
6 4
Ġsou l
an ing
Ġtrad itions
Ġprint ing
Ġinteract ive
Ġc aught
ĠDe v
et te
our se
et ary
Ġgrow s
Ġins ight
z heimer
ĠM ot
ĠP lease
Ġlist ening
Ġpol ar
so ft
Ġavail ability
Ġdirect ions
ic ular
% ,
ag on
Ġpro s
iox id
f ts
Ġexhib it
ĠS ir
ĠWind ows
van ia
ust ain
Ġdec ay
ĠJ ul
Ġdri ver
i at
ĠCo ast
Ġbacter ial
ĠI ran
Ġy e
ogen ic
Ġcon qu
Ġsl aves
ĠSur vey
Ġal ph
ie val
Ġep is
Ġgrant ed
Ġaddress ed
ish op
Ġb rows
Ġconclud ed
Ġen orm
m ers
Ġemer ging
R ef
Ġoptim ization
Ġre aching
Ġwind ows
Ġview ed
Ġam azing
Ġprovid ers
im a
n ight
Ġp in
Ġdeg rad
ĠT able
0 3
arent s
ĠSup reme
Ġhead s
Ġad verse
Ġoccur ring
e ut
Ġst uff
Ġra c
Ġemphas is
ment ation
Ġquant ity
Ġst rain
Ġun ion
Ġag ed
Ġperform ing
ĠC ell
sy l
ic ing
S he
Ġtrans mit
C o
Ġsit ting
isc o
ĠS S
ail able
it ure
Ġsl ave
Ġcon ce
ĠAut hor
Ġst ake
Ġpar agraph
Ġind igenous
ĠW all
Ġther mal
ĠT ype
uck y
ĠChrist ians
Ġphr ase
ĠP ot
Ġmod erate
ĠH and
ĠDe ep
Ġantibiot ics
iz abeth
Ġmus ical
ĠL ead
ut en
ĠL ight
arch y
Ġd ense
I F
H S
Ġapp lying
0 9
Ġwors hip
Ġwrit es
re al
E very
ĠU r
roll ed
ĠT im
Ġcere mon
ĠS et
Ġre ct
Ġcomp rom
ĠB oston
Ġnarr ative
Ġatt ribut
Ġd rought
Ġm ir
Ġt ables
Ġ3 3
ic y
Ġcharacter istic
ĠF ind
Ġm ur
Ġg iant
Ġcat tle
Ġsw it
Ġefficient ly
C omm
Ġconf erence
Ġvers ions
ĠMin ister
Ġpres erve
ĠSt art
hold ers
am ples
Ġbe es
Ġregard less
Ġprotect ing
Ġsun light
Ġsu p
Ġpand emic
N S
Ġweak ness
o ys
Ġdiet ary
ĠPro cess
P er
Ġaffect ing
EN T
Ġmod ule
ĠT op
ar ters
ograph ical
Ġwhe el
Ġas c
ĠL iter
b ox
ĠScot land
Ġpe oples
Ġath let
Ġdut y
ĠPolic y
Ġfunction ing
Ġaim ed
Ġcommit ment
ĠV en
cent ury
t les
Ġf inger
ĠL ast
it ual
ĠOh io
g ien
ange red
Ġloss es
eng er
Ġexperien cing
D S
Ġvit amins
Ġord ers
Ġdis abilities
ud e
Ġex haust
Ġp airs
Ġconcent rations
ĠL ess
l ines
ĠK ar
um er
ol i
imens ions
Ġc oc
' ,
ac hers
] ,
ĠJ eff
Ġext ension
Ġprof it
ĠN ote
ant ly
Ġfocus ing
Ġl aser
e h
ĠL incoln
Ġad vent
Ġcommunic ations
Ġcontribut ed
ar se
Ġsent ences
om atic
ĠL y
Ġbi as
Ġme als
à ¥
0 2
Ġinh abit
ĠCam bridge
Ġsum mary
ĠP en
re ated
ĠB ased
all ow
ĠM ath
Ġinter ventions
Ġtum or
Ġproduct ivity
ĠMod ern
Ġform ing
y er
Ġcor on
at hered
ĠC ode
Ġprotect ive
Ġregard ed
Ġfat ty
erc ury
Ġl ip
Ġliter ary
othe rapy
ck ing
C L
Ġemot ion
Ġsynt hetic
Ġremark able
Ġold est
Ġcool ing
ĠJ o
Ġsur ge
Ġrel ie
ĠHeb rew
ĠH ospital
Ġwhe at
ĠAl zheimer
H A
og s
ĠS ar
ĠU t
ĠAss ess
ĠKore a
Ġ ;
Ġpro sp
Ġpre ced
ans as
ĠA R
if ier
Ġrem ed
ĠFor ce
Ġmount ains
Ġb ag
Ġcall ing
Ġfacilit ate
Ġl ymph
Ġac res
ĠRead ing
Ġperson ality
ĠS and
Ġsepar ated
Ġvacc ines
T P
ĠIm p
ru it
Ġcolon ial
syl vania
O M
ĠF ire
5 6
Ġ199 2
ĠN ov
Ġaut ism
Ġprogram me
Ġc odes
Ġimpro ves
Ġscen ario
Ġqu arter
are n
0 6
Ġupd ated
A pp
ĠM ah
Ġcalcul ated
Ġfac es
5 9
ĠId ent
ĠDiv ision
Ġtechn ological
T oday
Ġcomp ound
ĠProt ection
Ġcustom er
ĠUn fortunately
ĠPre vention
Ġpur s
Ġres il
Ġver tical
ĠRo ad
Ã ¢
Ġt or
Ġplant ing
Ġman ual
ĠB ack
em a
ay er
Ġmat rix
Ġl ens
ric ts
Ġcontribut ions
Ġm ine
ĠWith out
Ġfar ms
Ġbound aries
Ġcompet itive
Ġreport ing
erm an
Ġn ice
Ġoverw hel
Ġmos quit
Ġasse ts
ir ms
Ġgir l
? "
Ġtax es
0 4
Ġpsych ology
ep ing
ĠC a
Ġord inary
Ġsc hem
b a
Ġchem istry
ĠF ather
ĠEd ward
Ġbehavior al
ĠH or
ig are
Ġdem ocracy
qu ir
ĠI V
Ġdes ert
Ġg ases
ut ation
Ġsettle ment
Ġse at
Ġcoun sel
ann ed
Ġfall ing
ĠT om
Pe ople
Ġsupp lements
Ġmig ration
aw s
Ġdef iciency
pt ic
Ġn odes
ch ain
em ploy
usal em
ĠFace book
u rolog
ĠB ul
ĠCh apter
Ġmanufacture rs
Ġto b
ad vant
ĠL ee
ĠW ay
Ġt on
Ġeld er
Ġsam pling
ap or
m ble
ĠQue en
Ġneut ral
Ġlung s
Ġsm ell
use t
ĠMich igan
h ar
Ġstat istical
ad ow
Ð °
ec ess
Ġ199 3
Ġresearc her
az on
Ġman aging
act ions
ĠSt ar
ĠCont in
Ġreason able
Ġeduc ators
Ġfore cast
Ġher b
eg a
Ġh ier
Ġaccur ately
Ġrhy th
Ġk illing
Ġste am
. ).
ĠP oint
ĠH im
) ||
man n
Ġarg uments
Ġeth ical
opy right
B T
Ġappoint ed
l ights
Ġcomput ational
Ġsub stit
Ġsh oot
ul pt
ĠCons ervation
Ġvis ited
c ient
r at
Ġemer ged
ad el
ĠGeorg ia
qu ality
uset ts
Ġconsum ed
Ġdis ability
Ġachie ving
C ol
u gg
ach usetts
Ġd ress
d imensional
z er
ild ren
ĠI T
Ġh all
Ã ¤
Ġr an
Ġd ance
Ġst ones
d isc
Ġexc iting
Ġc ure
ĠA M
Ð ¾
ĠB usiness
un a
Ġher itage
) |
Ġsc ope
Ġn om
ial s
Ġtraum a
Go ogle
ĠHe art
Ġexpand ed
ĠD own
Ġcardi ovascular
z ym
oper ative
E ar
ĠSch olar
Ġhypot hesis
Ġdom inant
Ġ9 5
ir th
ne ys
ĠD utch
Ġpur su
Ġd uration
Ġcarb ohyd
Ġloc k
Ġ5 5
Ġhard er
ert y
h us
Ġarg ued
Ġdeterm ining
Ġv en
Ġtob acco
ign ed
Ġille gal
Ġc ord
v i
Ġ20 21
Ġ199 1
Ġe ase
Ġbur ied
ĠB attle
Ġch ances
Ġphys ically
Ġachieve ment
Ġst yles
he a
Ġbelie ves
ur ches
Ġprom ise
Ġadv is
Ġinst ances
Ġbl ess
et al
Ġc otton
Ġal ive
Ġbat teries
O P
om er
Ġpoint ed
Ġpl ain
Ġoffic er
Ġpan els
et ing
th on
ht ml
Ġiniti ative
ang er
ist ing
Ġnot ion
ĠC P
ĠPal est
ber ry
Ġhuman ity
ip her
am ps
ĠT ry
Ġchar ged
iv a
Ġrequire ment
Ġg ast
ĠPenn sylvania
Ġopp osition
Ġt ong
Ġad olesc
ou ds
Ġc as
E F
Ġaddress es
ra q
Ġper mission
Ġnutri ent
Ġsoci eties
eff icient
Ġeng aging
Ġsub t
Ġstop ped
ĠC at
P art
Ġhand ling
Ġatt itude
Ġur ine
Ġemb ra
Ġch ap
Ġclass ified
Ġl ists
Ġw isdom
am i
Ġdri vers
E G
ast s
ĠD C
Ġre verse
Ġbut ton
th rough
ĠBo oks
Ġant ioxid
Ġhy brid
N ote
ĠR h
Ġper t
A B
Ġr anging
ur ning
ĠP ur
Ġr itual
Ġdram atic
Ġ3 9
Ġo m
P re
Ġmy st
Ġexpect ations
ĠJer usalem
Ġassum ed
Ġlow est
Ġkeep s
Ġtrig ger
Ġplan ets
Ġcl ock
Ġmother s
Ġprom ising
6 7
Ġcl ients
u um
Ġaut o
as y
Ġsimultane ously
. '
Ġt ap
Ġtem porary
Ġf ellow
Ġf lying
od ed
ĠPol it
ĠAr ctic
ĠW il
Ġwebs ites
Ġs ect
ig er
Ġinteg r
Ġmembr ane
Ġminim al
Ġcan cers
Ġown ed
Ġpoet ry
iv est
w ords
le te
0 8
S P
Ġfl ash
Ġelse where
Ġob st
ĠEl izabeth
Ġwa iting
er ative
Ġatt ach
Ġro yal
Ġspok en
Ġgra ins
Ġmarket ing
un c
ĠI ss
op her
P ub
ĠO bs
Ġinc ident
ol t
Ġmet als
ut her
ful ness
Ġfu els
ip e
ĠIm m
Ġprefer red
e or
Ġpromot ing
Ġs hed
ĠIsl amic
Ġâ Ĩ
Ġ19 30
ĠIn s
Ġm ask
se ction
k ind
Ġadapt ed
ri ze
Ġremov ing
ĠF ar
Ġec ological
Ġtarget ed
Ġt ick
s en
Ġsp r
Ġtrib es
Ġir rig
Ġw ider
Ġent ertain
Ġperce ived
Ġhunt ing
Ġin herent
Ġmar g
0 7
ĠSp ring
ĠColor ado
ĠIm pro
Ġbo at
Ġcomp ost
Ġf ats
ĠW al
Ġp H
Ġveget ation
Ġlight ing
em b
Ġprior ity
ĠIn it
Ġman ager
Ġcontain er
ĠC ard
Ġer u
s or
ob ile
Ġcomple ment
Ġsp ray
h ire
ĠRe v
Ġadv ances
ĠL in
Ġox id
end ment
Ġf ought
ĠL i
Ġexec utive
ĠMass achusetts
Ġvers us
Ġsim ulation
Ġcreat ures
Ġbal anced
im m
ĠF ed
Ġevalu ated
Ġanal og
Ġconscious ness
ĠÂ £
Ġcon clus
ist ant
er ated
ic ian
P r
G et
Ġenorm ous
Ġp ose
ĠSp irit
Ġdeep ly
as ma
Ġ4 8
le ar
Ġequ ality
Ġdiff er
Ġeven ing
Ġut ility
Ġqu iet
ĠHaw ai
ĠL arge
Ġse vent
Ġev ident
Ġexp ed
Ġl ibr
Ġthreat ened
St ep
Ġestablish ment
Ġf ing
Ġchann els
Ġecosystem s
ĠB u
W here
ĠPar liament
Ġwonder ful
ail ing
Ġgen ome
Ġg ent
Ġmanif est
ĠHe ad
Ð µ
L S
Ġrecy cling
Ġlab our
ĠG P
id al
Ġmeaning ful
Ġsett led
N et
Ġpro x
Ġmov ie
cyclop edia
ĠC irc
ĠOr ig
Ġth read
Ġsafe ly
Ġt ip
Ġstre ets
Ġcons erv
Ġcour ts
Ġpil ot
Ġhorm ones
agn etic
be an
ĠAg ain
C ar
Ġreve als
ĠF act
ide o
oc ity
un ct
Ġwatch ing
pl ay
av irus
el ve
Ġcolon ies
Ġfat igue
Ġagg reg
Ġprof ile
Ġanaly zed
Ġrepresent ative
ant ed
Ġtrack ing
Ġvary ing
ĠJust ice
z o
ivest ock
Ġrequ iring
Ġj ur
Ġassemb ly
ĠConf ed
Ġexpert ise
ĠHar vard
Al so
w an
Ġinter ior
6 3
olog ically
ou l
Ġhousehold s
onom ous
Ġf isher
Ab out
J ohn
Ġ3 7
Ġeng ines
ĠO l
Ġconver ted
Ġbu ff
Ġpredict ed
Ġdefin itely
Ġdifferent ly
Ġastr onom
Ġunivers ities
Ġd imensions
op l
Ġcan n
Ġcon vey
' .
Ġsymbol s
6 8
Ġgrav ity
im p
Ġjoint s
u ity
Ġtell ing
Ġ3 4
rane an
ain ts
en cing
Ġsav ed
Ġsod ium
Ġspecial ized
bor ne
Ġempt y
Ġclot hes
Ġent ering
Ġpart ial
Ġt rick
Ġgu ess
iz ers
hem istry
Ġdist ricts
Ġc raft
Ġeng agement
Ġanalys es
ĠC ub
as m
ĠB ang
Ġdis m
im ation
us ive
Ġconver t
ĠChristian ity
bo oks
ĠO pt
Ġtrans mitted
Ġequ ations
Ġsum mar
Ġinf ants
i op
g a
u an
Ġtra its
Ġant icip
Ġg ly
Ġd ies
og ene
Ġcelebr ated
ura ble
Ġres c
S im
ĠNav y
Ġfe els
Ġact ing
C ons
Ġconstra ints
Ġclass ic
d ep
Ġmind s
Ġthe sis
Ġvir al
b el
ne um
ĠS everal
Ġref erences
or ig
Ġstri ke
Ġf ires
Ġsustain ability
Ġco operation
U nder
fore st
Ġl osing
Ġpre y
Ġrepresent ing
Ġaccompan ied
Ġtrans c
ĠI raq
ĠT O
ra ham
ĠD rug
ĠPhil ipp
Ġs oph
Ġadd iction
er ally
Ġd il
Ġcommit tee
ĠS P
Ġocc as
Ġopt ical
Ġcry pt
y ou
Ġuncertain ty
Ġbe at
ĠIs lands
Ġground s
Ġneur ons
ĠC lick
Ġapp eal
g on
Ġking dom
en ced
ĠI D
Ġsc al
Ġsequ ences
Ġact ively
Ġshap ed
ĠLabor atory
Ġbar riers
f eed
Ġpract ition
Ġdev ast
ĠKe y
ĠSt an
ment ia
Ġcontroll ing
ag en
Ġd airy
Ġch air
Ġd ating
Ġover view
Ġbiod iversity
5 3
it ting
Ġnewsp aper
m ade
r h
ag an
Be fore
ĠL ittle
Ġspec ified
er ts
Ġpe er
R C
re f
Ġs aving
Ġwe aring
Ġsc ulpt
Ġpain ful
Ġag ing
b ell
Ġsem i
ol k
ĠB uilding
Ġdist ribut
Ġt act
Ġpreval ence
Ġc ub
Ġcontin uing
Ġun n
Ġf o
Ġl ob
ĠFranc isco
Ġent it
Ġm ature
Ġlif etime
Ġra ising
Ġread ily
f e
Ġob lig
Ġc ough
ĠPro ble
ĠBl ue
ĠInd eed
Ġf ur
ĠV iew
Ġpup ils
Ġcandid ate
ic ts
c al
Ġat oms
Ġ19 20
us cript
ĠAlex ander
Ġminim ize
Ġfra ction
as hes
Ġt ab
B M
f riend
th od
Ġreal ized
f oot
Ġviol ent
Ġsp ots
Ġint ention
Ġemb ry
b ec
Ġp ill
Ġdiscuss ions
Ġwe igh
Ġlo ose
Ġpass ion
Ġass ert
ĠE PA
ak a
Ġreplace ment
pl ate
res hold
Ġaddress ing
Ġc ul
Ġlab els
Ġcollect ive
Ġs essions
ĠTest ament
Ġ ?
ĠD O
ĠC E
ĠSund ay
Ġw elfare
Ġstrateg ic
u its
ĠG ulf
Ġacc ord
Ġhe ter
elesc ope
Ġprov ince
ĠF il
ĠAgricult ure
ĠC orn
Ġver b
Ġopin ions
Ġun cle
ĠEc onomic
M ay
acks on
ol ves
ĠConf erence
Ġmedic ines
Ġh am
Ġcho osing
Ġadapt ation
ĠBe hav
Ġvirt ually
Ġatt itudes
il a
ĠD esc
Ġsu it
Ġwould n
20 10
ira ble
ĠLe vel
Ġlog ical
Ġheav en
A G
Ġb are
Ġs ulf
ĠPort ug
Ġexist ed
Ġbeg un
ĠO tt
zy me
Ġsc at
Ġc ow
Ġemp ir
Ġexpl oring
Ġoutbre ak
Ġcont ents
ĠWild life
Ġar ise
ĠS aint
Ġh at
Ġadop t
Ġs ad
ĠL im
Ġnutrition al
Ġm ouse
the w
Ġtra ce
S m
Ġgra des
Ġflex ibility
5 2
Ġdr inks
Ġtrans formation
Ġacknow led
Ġdigest ive
ĠIn vest
at i
Ġsp inal
Ġorig ins
Ġtre m
ĠD yn
ĠDig ital
Ġdevelop s
ĠC T
ly mp
Ġconvers ion
ĠG all
ino is
ry pt
Ġg athered
Ġreg ime
Ġt ends
ov es
Ġinvolve ment
Ġvar ied
6 1
Ġdevelop ments
c in
ĠInc re
ĠAs k
Ġre aches
il st
ĠPh ot
Ġst ood
ĠS elf
if ice
f ast
Ġsh orter
Ġhy gien
Ġreturn s
Ġt one
ra ine
ĠNe xt
end ar
ĠP age
Ġhosp itals
' d
ĠP ass
Ġchrom os
ic acy
Ġch ose
Ġche ap
ens ed
ĠSm all
Ġwithd raw
Ġevolution ary
Ġm unicip
Ġdis advant
ĠS em
Ġrest oration
Ġsystem atic
ĠCon st
Ġcirc ulation
Ġfriend ly
w orth
Ġhabit ats
Ġmagn itude
Ġwire less
ocol ate
Ġvar ies
Ġassign ment
Ġholid ay
ĠAv oid
Ġp ione
Ġsur gical
o ons
ĠR am
Ġg um
m ath
Ġperson nel
ĠH indu
Ġresist ant
Ġmy self
Ġsepar ation
Ġrest ore
ĠI ce
Ġha ven
am il
F ig
Ġserious ly
Ġl ingu
Ġagg ressive
Ġenh anced
ĠC r
ĠL os
ĠU V
Ġapparent ly
LM s
Ġplatform s
ils on
Ġinflu ences
Ġrepresent ations
Ġsatis fact
Ġcalcul ate
Ġcur ve
Ġrec re
lect ed
Ġpers u
Ġpr ime
o is
u ber
rou d
Ġ ion
Ġcl ub
Ġsc ales
Ġgener ating
Ġbar rier
6 2
Ġinc ent
ĠHel p
R L
Ġvict ory
a is
ĠG ar
Ġbur den
ap es
Ġsp an
ĠInd ones
ĠD ue
reg ular
Ġbre aking
es ium
Ġsav ings
Ġphotograph s
Ġassoci ate
Ġbound ary
Ġplant ed
Ġenab ling
Ġsc iences
c ule
Ġprec ip
Ġw ars
ĠF red
a fter
Ġgradu ate
Ġ3 8
Ġext ens
ct ors
Ġble eding
Ġunlike ly
Ġdef ault
Ġpurch ased
Ġh al
ĠH ence
ĠTreat ment
Ġsong s
ri um
Ġcell ular
Ġju ice
ĠH T
ig m
Ġar med
Ġoccup ied
Ġthy roid
Ġp el
ce ans
s we
su per
E ach
p ower
Ġrec ording
Ġpresc ribed
Ġrob ots
ĠTe xt
Ġpoll ut
20 12
Ġqual ities
htt p
Â ®
Ġguarant ee
Ġident ical
ass ium
Ġnot iced
Ġcolon y
Ġimmig rants
eut ic
zym es
Ġdi arr
ĠS olar
Ġsh ore
Ġbe ans
se x
Ġincorpor ate
Ġas h
-- --
app ed
Ġquant ities
Ġso ils
Ġrest aur
un ning
adel ph
ment al
N e
Ġrestric ted
ĠB ureau
ĠN O
Ġreflect ed
Ġind irect
ch ron
Ġstream s
Ġgod s
ĠMuslim s
Ġfund ed
Ġnumer ical
Ġve ctor
Ġear s
Ġwork place
Ġveget able
Ġdistingu ish
Ġpartic le
Ġout perform
ot ypes
Ġal arm
Ġabsor b
Ġj oy
at us
c ut
Ġ198 9
ĠT H
eli hood
E ng
Ġs ale
ĠL at
aw n
akes pe
ĠL ine
ĠAm azon
Ġse es
Ġ194 0
Ġdro pped
Ġor ange
Us ing
Ġliter ally
Ġsched ul
on ents
H ist
ge bra
ĠAr ts
ĠWik ipedia
The n
Ġdi pl
Ġspace craft
Ġt ill
Ġd ict
Ġcur rency
Ġpen et
Ġcomb ine
Ġgl ac
a que
ĠV itamin
ĠM id
Ġtransfer red
Ġcelebr ate
Ġor b
Ġpriv ile
Ġsp oke
Ġt ension
Ġappl ies
ĠC ost
Ġst ere
20 11
cl aim
i ations
in ator
Ġprof ound
Ġmotiv ation
Ġann ually
Ġbreak s
ĠP u
Ġbas ically
Ġp ace
ri p
Ġsever ity
Ġsc r
Ġsac red
w as
ĠD ictionary
Ġpay ing
un ing
Ġglob e
Ġpost s
Ġre vers
ĠSy m
Ġdisplay ed
Ġent hus
f unction
ĠUn like
akespe are
Ġpow der
Ġ1 20
ĠB al
Ġfru str
ĠW riting
ater al
ick ing
semb ly
ĠC H
ĠV an
ĠC rit
5 4
ĠStand ard
Ġcreat ivity
S ource
oc ated
in er
ĠViet nam
U se
ĠGree ce
ĠT own
ĠM ess
sh aped
Ġposs ibilities
Ġhapp iness
er as
Ġrestrict ions
Ġdiscipl ine
ĠPer haps
Ġaccompl ish
p ress
Ġan ger
Ġattribut es
re ens
ĠAnd rew
Ġg if
ĠR NA
Ġcould n
ys ical
Ġcopy right
Ġparam eter
iss ipp
ane ous
ay a
ĠS qu
Ġhyd ro
Ġ4 2
Ġconsist ently
J ust
S ec
Ġminor ity
T H
Ġsynt hesis
Ø §
ĠN ob
ĠF arm
adelph ia
ĠDan iel
Ġpres erved
ĠW hether
ple x
Ġcap ability
! âĢĿ
ment ed
ĠC apt
Ġmetabol ism
L ast
Ġevery where
out heast
ĠSecret ary
b our
aw a
om eter
og ens
ĠJac ob
ĠE mer
Ġh o
ĠO lymp
v ation
Ġst abil
9 8
ĠN eed
Ġsu icide
Ġcl ay
Ġco at
Ġimp air
Ġp ets
Ġspecial ist
ĠB a
Ġto m
Ġtong ue
Ġinc idence
D espite
Ġpopular ity
Ġleg it
Ġthem es
Ġper mit
ond ay
ar ks
iter ranean
Ġcap s
s k
iss ance
ĠHistor ical
ĠWh ich
Ġed ges
ĠTem ple
5 8
5 1
Ġprepar ing
Ġm apping
Ġproduct ive
l ock
ĠBi ology
ĠMed ia
l av
Ġshe ep
il er
Ġth roat
ĠM P
Ġw al
Ġpray er
ĠCent ury
Ġconsequ ence
th is
Ġdiv ine
Ġprecise ly
ĠF ield
ĠL ew
A F
9 3
ĠC reek
Ġult imate
is ations
Ġestablish ing
Ġg ift
Ġstr ange
est ions
al so
Ġw at
ac les
Ġprop osal
Ġgard ens
b ury
A re
Ġar bit
ĠIll inois
Ġo ste
Ġtempor al
ĠS ection
Ġdec omp
ĠC op
Ġjud gment
200 9
iz z
Ġl ivestock
ĠPl ay
Ġowners hip
Ġd imin
Ġdra ft
Ġillness es
ĠFr id
Ġcontribut ing
rit ten
Ġout door
Ġch urches
ĠK ids
ĠÂ ©
g reen
ĠMex ican
ock et
p re
Ġpu zz
ĠBe ing
Ġmor ph
Ã ±
Ġin ev
Wh o
Ġregist ered
Ġmamm als
Ġk g
Ġw ise
9 6
Ġver te
ĠCh ief
ra it
row th
Ġperfect ly
Ġw ing
ver ages
Ġref used
Ġsu g
ĠCon vention
ĠMin istry
ugh t
ĠA ction
ĠH ard
Ġben e
Ġdemonstr ates
chn ology
m ond
Ġwork er
Ġsuscept ible
A V
ĠIm age
Ġo l
ĠCh o
is ition
Ġint ra
oc a
Ġspeak er
Ġcomp os
ĠO k
Ġwas h
Ġpen al
Ġre ign
ater nal
iv ation
ĠCol on
L ike
9 7
20 13
Ġman agers
ĠS on
ĠH um
Ġb orrow
Ġsuggest ing
ĠR ail
Ġs ons
Ġs ister
D L
Ġdocument ed
Ar t
Ġv ig
st ep
Ġaccount ing
ĠK ent
Ġsh r
Ġth reshold
Ġconflic ts
Ġbe ars
ĠP oly
Ġg ate
Ġbu ying
ĠR ight
Ġpass es
Ġpack age
Ġg est
ĠN orm
Ġutil ized
Ġ( âĢľ
ru e
ĠPhys ical
ru b
5 7
Ġprov ision
st ic
Ī Ĵ
Ġpay ment
Ġto mat
Ġsudden ly
Ġther m
Ġcy cles
Ġcomp ass
ab b
9 2
ĠM ove
Ġsur prise
Ġpaint ings
Ġchick en
ot ion
Ġint r
Ġcl ouds
Ġunder ground
mar ks
Ġv ibr
Ġconsist ing
ĠSen ate
issipp i
Ġinv ention
d i
Ġo ils
Ġro oms
ĠF air
ter ior
Ġincorpor ated
Ġatt ributed
Ġtrans plant
ĠL ocal
ok ed
cept ions
rep rene
ĠM oses
Ġvel ocity
Ġisol ation
R S
T ra
ĠComm ons
Ġaccept able
Ġput s
ĠJ ackson
r in
on aut
ĠL og
Ġdevelop ers
ent er
Ġdesign ated
C om
R el
Ġbene ath
Ġbe e
Ġreg ulate
ĠU k
Ġst er
ĠMus ic
ond ition
Ġcorrel ation
Ġdram atically
aterial s
Ġz ones
Ġr anges
reg on
Ġenjoy ed
200 8
Ġaltern atives
gh an
Ġfif th
Ġro d
s ub
ĠHer itage
Ġam ino
Ġar thritis
olog ic
Ġv o
Ġadop tion
ol er
Ġdiagn ostic
Ġalong side
Ġmeet ings
ĠOb ama
Ġname ly
Ġlik elihood
Ġest ate
Ġpred om
Ġexc lud
L L
Ġpartners hip
Ġph ones
Ġad vers
Ġexec ution
ĠE ll
ibl ical
Ġelement ary
Ġdesc end
Ġfav our
ĠT raining
ĠMed iterranean
Ġvolunte ers
Ġdist ant
Ġinhabit ants
Ġin ch
st ru
c ase
ĠPl ace
ĠH a
Ġiniti atives
Ġreven ue
Ġencoun ter
Ġn ode
Ġre ef
m ail
th ur
Ġbe am
Ġher self
el ly
Ġl akes
Ġf t
ĠMicro soft
Ġtot ally
Ġattempt ed
u is
Ġgraph s
Ġte ens
Ġen cl
Ġcons ent
Ġupd ate
Ġs ending
el ing
in th
ĠApp lic
Ġutil ize
con n
T wo
it ic
in ces
Ġsub sc
aus es
Ġbr on
Ġfin ish
ĠD am
Ġman uscript
c or
et he
Ġinv asive
ĠSupp ort
Ġelect rons
Ġinter medi
Ġele ph
ĠAre a
ĠP DF
id ers
Ġnut s
w estern
Ġdiag ram
ĠH aving
Ġabsolute ly
Ġh ol
ĠDiff erent
Ġrel ate
Ġmer ch
it us
op t
ĠT rust
ab out
* *
Ġvis its
Ġequ ipped
Ġcandid ates
ec onomic
osp el
Ġdevelopment al
Ġvill ages
Ġret rie
Ġb ought
Ġattract ive
Ġspread ing
Ġr ib
Ġregul atory
Ġd oses
Ġw ings
Ġsw elling
Ġsym pt
ur se
Ġcal m
Ġemploy ee
Ġtransl ated
Ġcorpor ate
Ġencoura ging
Ġclust er
ĠL ater
Ġrul ed
is d
ĠM A
Ġal ert
ĠH it
od er
ĠRem ember
ik a
Ġrain fall
Ġc ited
ĠM ur
Ġextra ction
Ġbroad er
Ġdim ension
Ġsed iment
Ġdescrib ing
ogn ition
Ð ¸
b ow
Ġdis h
ĠM ain
ĠPhil adelphia
Ġsleep ing
ist ically
se ud
ĠD ie
Ġcont amination
Ġ1 000
Ġde mentia
em ies
Ù İ
ustain able
Ġentit led
Ġhop es
Ġearthqu ake
Ġphilos oph
Ġelect ions
Ġintellig ent
Ġn oun
Ġinv asion
ĠOf ten
ĠP rom
ĠBl ood
com p
Ġcop ies
Ġun employ
or us
ĠComput er
Ġsurpris ing
Ġres erved
ĠRes earchers
Ġpro l
w orm
Ġsch olar
Ġwind s
Ġrad i
Ġper pet
Ġref lection
Ġworkshe ets
Ġ4 4
Ġfasc inating
b est
end a
riz ona
ou ri
or i
ĠAnt ar
Ġamong st
Ġ9 78
Ġso y
Ġpredict ions
Ġreprodu ctive
Ġt ort
Ġlect ure
ĠF DA
or ters
Ġhon est
ĠM ajor
z one
ĠO cc
ĠS anta
Ġdeb ris
Ġsurve ys
Ġpart ially
Ġestim ation
sc ience
Ġa ug
ĠAssess ment
Ġwood en
Ġ2 50
Ġdi ets
Ġabund ance
Ġrese mb
in ates
ĠInt eg
Ġre nder
Ġtum ors
Ġdis charge
i ro
Ġcoll apse
Ġwhen ever
P lease
ict ions
Ġrepe at
Ġdist inction
ĠSt ation
T able
Ġsens ory
str ial
Ġprec ision
Ġtend ency
Ġconf usion
Ġpros per
Ġan not
ian o
Ġmin ister
Ġelev ated
Ġpe ers
iv ities
G l
Ġbond s
Ġen forcement
R eg
Ġdom ains
Ġcollect ions
ĠR est
200 7
3 00
ĠFrid ay
ad or
O s
ĠO S
ĠOb ject
istic ated
. ),
exp ected
Ġaband oned
Ġabsor ption
ĠM ic
is ons
ĠThe ory
Ġinstall ation
Ġexpand ing
R ep
Ġmed ieval
Ġdesign ing
per t
ĠAb raham
ow ered
ĠM aster
M e
Ġoper ated
Ġarr ival
Ġrec all
: ||
ĠB ern
ĠUn ivers
Ġend ing
Ġprev ents
p df
V iew
ĠMiss issippi
ĠA T
Ġbl ank
Ġsuggest ions
" )
ĠEgypt ian
ĠW ales
Ġrep et
Ġvis iting
Ġcitiz en
om al
ast ics
ĠMar ine
20 14
Ġ es
ro se
Ġreflect s
s ur
Ġkne e
Ġwid th
e ven
ĠC S
av en
Ġindepend ently
Ġend angered
ĠG raph
ĠGard en
ar ium
ĠTw itter
Ġas ide
Ġal umin
e em
Ġmetab olic
in ite
M ar
Ġabund ant
ĠB rain
st ers
ĠO nt
ĠAl aska
Ġimplement ing
Ġan throp
n ia
Ġde er
ell er
Ġengine er
p age
D R
Ġsect ors
sequ ently
ĠP aper
Ġcomp aring
M C
Ġcert ific
ĠN utrition
Ġphenomen a
Ġtra ding
Ġdepos its
Ġoper ational
ool s
ab led
Ġdis ag
Ġbra ins
j i
Ġfac ulty
er b
Ġlo op
an z
Ġr ough
O W
Ġdis k
Ġen zymes
ol ph
ĠJ r
Ġconclus ions
ill ance
h ost
pro fit
ous es
Ġne urolog
Ġstra ins
Ġburn ed
Ġpl ates
Ġdiv ide
Ġo w
Ġsubs id
E A
ĠF ish
Ġ( "
quir y
if er
Ġelder ly
ĠL ook
Ġrel ating
ĠPro duct
Ġpun ishment
Ġintegr ity
Ġleg end
Ġreal istic
ĠTur k
du ction
Ġdem ocratic
Ġexc av
Ġoccasion ally
Ġautom atic
j ud
Ġdi ver
Ġsurround ed
ra ined
et ically
Ġpart ly
ĠW ilson
Ġcontin ent
Ġembed ded
Ġassess ments
ĠO regon
com pass
Ġcy l
Ġfol k
ĠN eg
Ġbro ke
Ġso vere
ĠInt roduction
in ery
ĠPh D
ĠWe ek
epend ence
lect ric
old s
Ġgram mar
igh th
Ġpip e
Ġra ys
Ġcontamin ated
Ġcivil ization
Ġh urt
Ġreg ister
ĠE nt
ol ine
. :
Ġpro long
ĠP L
Ġdefin itions
Ġancest ors
urric ane
ff e
ĠS us
Ġinfect ious
aut hor
ĠCD C
Ġapp s
Ġb ull
Ĥ ¬
ov ing
Ġfe as
om ed
Ġcele b
Ġh oly
gra de
Ġexpress ions
AT ION
Ġirrig ation
Ġr h
ig ious
Ġextra ord
Ġavoid ing
Ġd ried
az e
Ġc able
em eter
Ġb inding
ĠL ED
Ġcan al
atch ing
Ġth irty
at oes
B ased
un ar
Ġpestic ides
Ġallerg ies
rop ol
ac le
Ġhygien e
ĠA ud
Ġprodu cers
Ġsoci o
iv ate
Ġsurv ived
Ġcut s
ct u
Ġsubsequ ently
Ġcra ck
Ġcre am
Ġhome work
w a
ĠAngel es
200 6
Ġhigh lights
Ġqu ad
Ġhealth ier
itz er
ĠBer lin
Ġassum ptions
Ġreview s
ĠEn cyclopedia
ĠRe al
Ã ¨
ĠUnder standing
h an
Ġmist akes
Ġhoriz ontal
Ġsh ares
ĠPract ice
Ġorgan ism
II I
Ġemp ire
ĠP ut
Ġfa ult
red it
Ġf ant
ĠAn cient
Ġsal mon
Ġp neum
Q L
Ġconfig uration
ĠCor por
ĠPr int
Ġmole cule
Ġ6 00
R em
line ar
Ġinvent ed
M an
Ġorient ation
ĠR en
Ġm uc
Ġadj acent
ĠInt ellig
ĠV ar
Ġdo ors
Ġv om
Ġwe aken
Ġan at
ĠA C
ĠG iven
Ġfact ory
Ġcontain ers
Ġbr ush
Ġcollect ing
Ġh ack
IS T
Ġfit ness
Ġillust rate
Ġen zyme
Ġexpl ored
Ġmag azine
Ġfil ms
ic ations
d a
ath an
l og
Ġatmosp heric
Ġt ough
ĠD iet
ric ks
Ġcam ps
Ġon set
ĠSh ort
M od
Ġp anc
ĠC A
k er
Ġg erm
on ing
Ġob l
en h
ĠPr im
ĠMe an
ob ic
ch o
K e
Ġmur der
Ġdial ogue
Ġch ocolate
ĠCons ider
ug s
Ġstra w
Ġre nt
S ub
ĠAs sembly
Ġbot tle
Ġdut ies
Ġt ag
ub ble
oc ument
ĠClin ical
Ġinvestig ated
Ġappro val
ation ally
Ġ198 8
eng ers
ĠTh ird
l ist
Ġg ains
ĠA rizona
ri ble
ĠF ram
Ġmob ility
Ġinfluen za
ent i
Ġsp ons
ĠP ain
Ġconf ident
Ġmethod ology
Ġh ung
á ¹
Ġthan k
the re
Ġgr an
Ġout line
ĠL uc
ĠScient ists
G e
Ġcham ber
Ġs elling
Ġfin ance
Ġy ields
Ġshould er
Ġ rom
Ġflu or
Ġtw elve
Ġw ound
Ġkit chen
Ġeconom ics
Ġcont rad
ĠAd am
Ġland ing
Ġconsum ing
Ġphysic ians
Ġret ain
ĠMount ain
Ġacc idents
ĠM ind
! !
B I
ĠR ather
20 15
ul ates
Ġreview ed
Ġbe ll
ĠBet ween
Ġassess ed
Ġindic ating
Ġfing ers
Ġvacc ination
Ġshe ets
Ġnurs ing
le ton
Ġsoph isticated
ĠWilliam s
Ġmem ories
Ġf iction
Ġo ceans
) $
Ġstri king
Ġe rect
Ġsp ine
Ġdist ances
Ġbe ach
9 4
Ġcomple tion
ĠS ud
Ġcr imes
Ġre h
Ġth row
Ġimp ressive
ĠTh anks
Ġpain ted
im en
Ġadolesc ents
ist ent
ĠF er
Ġimag ination
Ġrep utation
Ġse iz
Ġres idential
Ġeat en
Ġp ine
Ġbas eline
Ġmut ations
Ġer osion
f ly
Ġatt ended
Lear n
d ate
t ype
ĠW ed
Ġ8 5
ĠInd igenous
Ġc igare
Ġquant itative
on n
ĠH yd
Ġcompar able
Ġd ying
Ġinj ured
Ġbench mark
dr iven
friend ly
nes ota
Ġdent ist
est hetic
ĠI de
Ġsurv iv
Ġrespons ibilities
U C
ĠTur key
eff ective
Ġp ale
em or
9 1
ut ical
ay lor
B D
Ġval ve
Ġmem or
Ġacqu ire
A ut
Ġu l
ĠN ic
ĠSchool s
Ġswim ming
Ġ à¤
2 000
Ġspeak ers
Ġg aps
ade qu
ĠOther s
art en
du ate
ĠW alk
Ġaff airs
Ġsh oes
Ġcateg or
Ġrece ives
ĠY es
Ġm ile
ook ed
el a
for ced
Ġassist ant
ĠConn ect
Ġcam eras
ã ģ
et erm
eg in
Ġdispl ays
Ġtoler ance
ĠK n
ĠScient ific
h ard
it ate
ĠWith in
Ġexhib ition
Ġb ags
inet eenth
, âĢĻ
ot ing
Ġlib eral
Ġ %
Ġart if
Ġoff ices
200 5
ĠG M
Ġthor oughly
Ġathlet es
Ġind oor
ĠT ar
Ġgra ms
k et
Ġl oud
vel ength
Ġperspect ives
Ġfree ly
f ire
Ġw ake
ĠN ether
Ġoffic ially
Ġval ley
ap ing
os itive
Ġan ten
ĠG DP
Ġcirc ular
Ġtherap eutic
Ġallerg ic
uss ian
P D
form ed
ĠEss ay
af e
ĠF ig
ĠG a
Stud ents
ĠSimilar ly
Ġstru ck
Ġse w
ĠM onday
ip ation
ĠS av
f old
ĠB est
Ġassum ption
Ġbroad cast
Ġax is
l aw
Ġconven ient
ĠJ ava
ĠH o
ĠSh ould
Ġgra y
ĠB ell
Ġattack ed
ĠAs h
Ġbrother s
ĠMach ine
de velop
the y
ĠD id
ĠN Y
Ġnot able
Ġabsor bed
in ch
Ġlo an
Ġlibr aries
Ġstret ch
Ġ4 3
Ġpublic ly
ĠGu ard
Ġar c
Ġb ite
Ġshel ter
Ġbul lying
og ram
Ġinf lation
Ġtow er
ĠPol and
Ġem it
Ġprogress ive
Ġper f
d ess
Ġpr one
ĠF ac
wh o
Ġscen es
Â ©
Ġ194 5
ĠS C
os aur
ĠIs a
ĠStand ards
Ġel abor
Ġschem es
Ġent rance
Ġshall ow
Ġ `
Ġlic ense
Ġprop ort
ĠL uther
ĠRep resent
Ġmy ster
at ile
ĠM ap
He alth
Ġbox es
Ġp ix
Ġpot assium
Ġres olve
Ġse al
Ġ$ \
Ġinput s
Ġchar ges
Ġn ic
Ġ ~
ĠOr der
Ġ ×
Ġab ol
Ġcomm od
Ġimportant ly
ar ial
Ġv ice
Ġcounter part
Ġ6 4
ecess ary
Ġwel come
Ġm issions
Ġfat al
Ġbus y
Ġst ems
F C
Ġfac ial
est one
Ġc rown
Ġdecre ases
Ġca ve
Ġp roud
Ġprison ers
Ġappoint ment
Ġadministr ative
Ġw age
An y
Ġdrop s
ĠF ollowing
ĠA st
ĠP ope
health y
om etimes
Ġautom ated
Ġgent le
ĠF uture
b urn
Ġspeed s
Ġv ag
Ġm isc
Ġaut onomous
ore r
Ġsole ly
C lick
Ġpred ators
M I
Ġsome where
ĠCult ure
as hed
ĠJ ones
ĠCh all
Ġenab led
um ns
Ġrefuge es
Ġantib odies
v ol
yl on
Ġhaz ards
Ġ198 6
ra c
on ly
ĠMary land
ĠPe ace
yp ically
ĠMiss ouri
Ġun expected
Ġple asure
i ac
ĠSt ill
Ġhistor ians
ĠS n
Ġjur isd
P s
Ġpl asma
Ġcamp us
ĠKore an
Ġfem in
Ġdep r
Ġir regular
qu es
ber ries
o T
Ġmat ching
Ġret urning
ĠEx amples
ak h
Ġret ail
Ġdisp ers
Ġreserv oir
Ġsem antic
ress ing
Ġdr ives
Ġworks hop
Ġpost ed
ĠJer sey
Ġpass word
Ġstruct ured
Ġle ak
ot ten
Ġmult ip
Ġb er
b age
Ġsp ark
Ġfib ers
B A
ĠP ath
im ental
Ġweek ly
ra id
Ġfra g
Ġu pl
Ġbe et
Ġcos m
nt il
ĠT enn
Ġsub mit
Ġinequ ality
Ġst atic
Ġmin i
Ġaward ed
Ġinst ant
et ric
Ġapprec iate
ian ces
Ġrepresent atives
Ġauthent ic
Ġre nd
Ġloc ally
P DF
Ġflav or
thod ox
or ient
ĠM rs
ĠC all
P V
Ġprotocol s
ĠH ig
Ġinteg ral
Ġpl acing
Ġkilomet ers
G S
act ic
Ġmult ipl
ne a
Ġass ault
Ġal tered
ĠHit ler
Ġmal aria
ious ly
Ġdel iber
i y
Ġprevent ed
e z
Ġarg ues
Ġexp ort
Ġconnect ing
Ġdisc l
th al
ĠF low
Res earchers
Ġparticip ating
Ġres on
u v
Ġinvest ments
co in
Ġ4 1
ib ration
Ġbl o
ang el
Ġbrows er
Ġpar ks
l ab
ĠNever theless
ĠSc ript
a ver
erm at
ĠH em
ĠMin nesota
Ġsh ade
Ġcal endar
Ġarr ive
Ġtransform ed
ace utical
Ġaccompl ished
T rans
ĠPh ilos
Ġseason al
Ġpresc ription
Ġcontinuous ly
ĠSh akespeare
ĠPro per
20 16
ĠSt ory
Ġex ch
d d
Ġb its
plic it
in ance
l am
ĠChar l
Ġcy cl
Ġcontribut es
c led
Ġlabel ed
Ġb orders
ĠMod els
Ġf an
Ġavoid ed
ĠMat thew
Ġoper ators
r int
Ġb in
Ġtrem end
ĠN ear
dom inal
A c
Ġimpl ies
Ġsub mitted
Ġtreat y
Ġconcent rated
ĠJ ack
Ġche ese
Ġd ual
Y es
Ġp ond
r ange
Ġcont rary
ĠE val
Ġdes k
ct s
ĠS ource
ĠKnow ledge
Ġm i
Ġinject ion
Ġdef ines
Ġcomp ression
Ġcons ensus
ĠT urn
y es
Ġindic ators
d is
Ġrecon struction
U p
ĠE S
ult ure
Ġm es
Ġp od
Ġf les
Ġwor n
Ġillust rated
Ġtra il
ĠM other
Ġ19 00
Ġmil it
Ġp est
ik ing
u ine
Ġcl oth
Ġcoun cil
Ġlast ing
F inally
Ġapplic able
ĠStud ent
ut ing
Ġstrugg ling
Ġmonth ly
W ill
Ġbr id
ĠTe aching
ĠTra de
Ġto ile
orig inal
Ġart istic
Ġrout es
Ġdef ects
Ġb ind
Ġtox ins
Ġpurs ue
ĠAr m
Ġgeomet ry
Ġcar ries
ĠF ull
Ġfertil izer
b ul
ĠPr ince
Ġprot est
Ġafford able
Ġadapt ive
Ġt anks
ĠC R
ĠE vent
Ġport ray
ĠWork ing
ĠNe ural
ĠO N
ĠRed u
ĠN a
Ġp ink
il ib
Ġgra ce
an ol
Ġb ark
Ġh ide
Ġcomp act
Ġsacr ifice
h igh
v y
Ġarr anged
ĠN OT
omet ric
N ational
Ġfil ters
Ġent reprene
Ġpres ervation
ĠTe achers
ard ed
Ġhum idity
ĠN ame
Ġv ine
Ġfore ver
ĠAD HD
Ġtravel ing
8 00
ĠBudd h
Ġhard ly
Ġdev oted
isc ons
Ġ198 7
ĠInt erest
ĠNether lands
ĠGovern or
ĠR isk
roph ic
Ġdest ination
Ġpersist ent
Ġanaly zing
ed ge
Ġeff icacy
ĠAf ghan
th ood
Ġent ity
ar ians
ĠB at
Ġbe aring
ĠS earch
Th rough
iscons in
ĠNe uro
Ġdiarr hea
ne g
U L
ro ach
Ġcol ored
Ġleg acy
Ġteac hes
Ġsearch ing
ĠCor ps
ĠMars h
ĠCl ub
Ġflood ing
ĠLew is
ĠCar ib
ip h
Ġpat ent
Ġinsp iration
ps y
Ġdist ract
Ġdisc om
ĠDar win
Ġpoor ly
Ġtradition ally
ĠR and
ĠSpec ifically
Ġobs er
Ġfall en
C he
ĠSo ft
Ġoccup ation
in ition
ĠN ep
v ae
Ġqual ified
Ġs ail
Ã İ
Ġtour ism
Ġoper ator
on ent
ucle ar
ĠGerm ans
Ġpub l
ĠAll ah
Ċ Ġ
Ġeduc ated
ĠOnt ario
greg ation
s ized
Ġencoura ges
ent ral
Ġcomp at
et ch
ĠIm port
ph ones
Ġat omic
on in
Ġext inction
ĠFranc is
Ġtack le
Ġp ediatric
Ġp ou
Ġunder go
. ||
Ġens ures
Ġstead y
Ġhe al
Ġrel iability
Ġc oding
Ġimmun ity
Ġtrib e
ĠM uch
ĠAl tern
Ġorgan isation
it le
Ġref rig
ĠMult i
az z
Ġepid emic
Ġsym met
j a
Ġc ourage
y an
Ġflu ids
ĠJ im
Ġel ig
Ġen compass
m ia
Ġprog ression
Ġconduct ing
âĢĿ )
Ġmet er
Sc ient
Ġa ster
comm un
Ġsett lers
um bers
Ġ4 6
20 17
Ġexc ited
inc ome
Ġatt ain
ĠD un
Ġr ats
ĠNetw orks
ce eds
Ġent ities
ĠD at
A ss
Ġfin ite
r un
Ġtut orial
Ġconf used
Ġgen us
200 4
Ġdistinct ive
Ġver se
qu arters
Ġtrans actions
Ġpublic ations
ĠC ore
Ġadminist ered
Ġcomb ining
ĠT ree
bur gh
Ġachie ves
Ġhyper t
Ġpath s
Ġstake holders
Ġph on
Ġpath ways
Ġreject ed
Ġb inary
Ġtherap ies
inf lamm
Ġdegrad ation
ĠS ens
iot ic
Ġmanufacture r
Ġh ill
Ġcollabor ative
Ġoccur rence
ĠDem ocratic
ĠM arc
ĠApp le
are r
Ġdistingu ished
ĠB io
ĠPhys ics
Ġfound er
Ġcarbohyd rates
do i
Ġmed itation
Ġimper ial
Ġop ens
Ġc ensus
ator ies
ĠDav is
Ġcritic ism
Ġp ests
ĠG re
Ġwas hing
Ġcontrovers ial
Ġre plic
i ative
n om
Ġincl usion
Ġapp et
Ġpromot es
Ġear ned
Ġl oyal
Ġinf erence
Ġlim iting
v als
sp ring
Ġp ushed
Ġc ope
ĠSam uel
Ġthor ough
Ġassoci ations
Ġvol umes
Ġrot ation
Ġas ks
tt es
ned y
Ġins uff
ins ula
Ġconstitution al
Ġaccept ance
ĠJ on
Ġempir ical
Ġcompl iance
ass es
Ñ Ĥ
Ġmon ument
Ġwa velength
4 00
gg ed
Ġo ught
ĠA h
ĠInd ividual
abil itation
Ġgun s
ĠQ uality
ph al
reat ment
ĠDe ath
Ġke ys
Ġreg en
Ġf usion
ĠH an
Ġprov isions
Ġb ills
P T
Ġdoct rine
swe red
l ings
ues day
Ġgather ing
ann el
Ġtim ing
R NA
ĠN E
Ġorgan isations
urs day
ĠH om
Ġclust ers
Î ±
ĠC ase
ĠU lt
Ġtext ure
M D
ĠH ot
ĠH op
Ġj ew
Ġceleb ration
ĠProt est
ropri ate
ĠInd ex
F S
Ġir re
an ium
Ġobvious ly
ios ity
Ġal ike
ĠPy thon
n als
o a
Ġp or
Ġh arsh
Ġnerv es
id ae
Ġdead ly
Ġm art
ĠUn it
uls ion
ĠJ un
ĠA qu
Ġthick ness
Ġintrodu cing
Ġt ied
Ġess ence
ĠNaz i
Ġconf ront
Ġg ear
sec urity
H T
Ġlif t
G u
Ġinflu ential
are st
ĠVis ual
um ing
Ġcor al
Ġvot ing
ĠPsych ology
ĠMc C
ree ment
Ġrub ber
Ġoverwhel ming
n ings
Ġgrad ient
Ġint ensive
ĠEm peror
Ġem ission
Ġexec uted
Ġmir ror
con f
Ġ8 00
Ġeth ics
om on
ĠH u
Ġgold en
at re
ĠRom ans
i atric
ĠB ush
Ġw ages
ĠCent ers
Ġs le
ĠVol ume
ĠB it
oc ent
Ġr ide
Ġb uck
ge red
Ġs el
ĠH ung
Ġtra ject
Ġsaf er
Ġn ort
Ġalg ae
Ġcoord ination
ĠD aily
Ġy es
Ġf ate
Ġpr iest
Ġdrain age
ur ated
ĠN umber
f ound
Ġdiscom fort
ĠM es
Ġintrodu ces
Ġc erv
Ġsub str
Ġh ip
og y
ĠP R
Ġaccomp any
Ġsust ained
ĠEc onom
Ġaf raid
ex ts
ra red
te enth
ĠT ro
ivers ary
Ġdis par
ĠTh ink
s chool
Ġinflamm atory
Ġt ape
Ġde leg
Ġall ergy
Ġsim ulations
H z
Ġpar liament
Ġemp ower
Ġnecess ity
Ġcol umns
Res earch
nes day
Ġcalcul ations
ĠB h
Ġfeature d
Ġhistor ian
Ġrecomm ends
ĠC ape
b ro
an as
Ġrac ism
Ġext rem
ĠM and
Ġsegment ation
ĠSwed en
ĠB alt
Ù Ħ
Ġmet eor
Ġfert ility
Ġsp ir
Ġmist ake
Ġsympt om
Ġattract ed
ĠâĢ Ŀ
a ft
amm ad
Ġalign ment
Ġconsider ably
Ġcat al
ĠJeff erson
in ian
ER S
Ġimmig ration
Ġemer ge
Ġthr ive
f are
C al
Ġin adequ
Ġm ira
k al
ĠIndones ia
Ġadvert ising
ĠAv ailable
Ġph ases
Ġnav igation
ut er
Ġsurpris ed
Ġrel atives
Ġsevere ly
Ġext ends
EC T
Ġsp elling
ĠST EM
Ġqu ery
ĠW isconsin
Ġinteg rate
Ġpreval ent
ĠScott ish
Ġdefe at
Ġ198 5
Ġbl adder
erg arten
Ġm ercury
ĠD u
Ġmagn esium
ĠGra de
ay ing
ĠStat istics
for ward
enti eth
Ġconclud e
Ġdom inated
L P
os ity
ĠLe ague
Ġmut ual
t em
y ard
Ġsusp ect
ps on
do ors
ĠMat hemat
Ġwrit ings
Ġreprodu ction
Ġgovern or
Ġsucceed ed
Ġterm in
Ġindu ced
ES T
Ġfro zen
Ġdescript ions
f ront
Ġk ern
ĠQu estions
Ġmagn et
Ġan ch
ĠCle an
ow a
Ġvac uum
ĠMar x
ĠC it
Ġsub tle
Ġextraord inary
ĠF a
Ġtal ks
Ġfra gment
F urther
Ġmass es
as ures
Ġf irms
Ġmarg inal
ĠA k
Ġhazard ous
Ġupd ates
Ġz inc
Ġ4 7
Ġelectron ics
Ġaccord ance
ĠRec ent
Ð ½
Ġ9 9
Ġincor rect
art s
Ġj aw
ub le
ount ered
rict ion
ĠBehav ior
Ġweap on
Ġst iff
ĠW W
ĠAn ne
Ġrevolution ary
ĠAn imal
id th
Ġper mitted
Ġv on
Ġcont exts
ĠA IDS
ĠZ h
ov ed
Ġexpl aining
r ise
Ġim bal
Ġmyst ery
e av
Ġtra cks
Ġextract ed
ic ides
erc ise
Ch rist
b et
Ġcost ly
Ġemploy ers
ĠLin ux
Ġmark ers
Ġfe ather
Ġan swered
Ġg au
Ġch ron
Ġch ains
Ġantibiot ic
hed ral
ĠÂ °
P L
f irst
Ġmeth ane
Ġclass rooms
Ġarrange ment
Ġacknow ledge
h uman
Ġdang ers
Ġre ar
g ress
as al
Ġshould n
ĠStep hen
s ource
st orm
Ġh ind
j o
ĠC old
d ated
x ic
i ors
Ġign ore
Ġh orn
au c
ac on
ĠÂ ·
Ġco inc
ag le
own ers
Ġtub es
Ġvom iting
Ġt orn
Ġto ys
ential ly
ĠEx ec
Ġspec imens
iv als
Ñ Ģ
onym ous
Ġk in
A I
y t
ĠS ep
Ġsp erm
. ]
Ġenc ountered
im als
ĠW ars
v ance
ĠK ansas
Ġcount ies
Ġexplan ations
ĠS her
Ġsusp ected
D ep
ĠEn c
Ġn urse
Ġacqu isition
Ġpredom inant
emeter y
Ġrhyth m
ĠPer form
ĠVictor ia
Ġrespect ive
. -
Ġconvers ations
ĠCarib bean
Ġcat ast
Ġdet erior
t ically
Ġpractition ers
ess ional
end ers
AR T
ard ing
Ġinvest ors
p m
ĠO s
anc ial
Ġmom ents
Ġevalu ating
Ġpack aging
Ġexclus ively
ĠM ental
ol it
Ġen emies
B ack
Ġeconom ies
Ġcardi ac
vel t
Ġstorm s
ol ly
Ġas ym
Ġcomm ands
Ġfrequ encies
Ġsynt hes
Ġreserv es
Ġpat ri
U M
Ġsubstant ially
Ġbu gs
he astern
Ġorigin ated
Ġst ack
Ġdoll ar
Ġexp ense
Ġphr ases
Ġhun ger
ĠM ax
ĠH on
Ġwh ilst
Ñ ģ
n on
super vised
Ġrock et
Ġse asons
ĠTrans port
Ġco ins
Ġdisapp ear
Ġm im
Ġarchitect ural
Ġdecl ined
Ġf oster
Ġexplicit ly
ĠN ation
Ġsitu ated
Ġcat aly
ĠW HO
Ġconserv ative
Ġpr ies
Ġexp enses
200 3
Ġgen uine
Ġcirc les
ĠFr ont
Ġ4 9
ĠF lu
Ġh ang
Ġsuppl ied
red ict
Ġ198 4
ob s
Ġdiscuss ing
Ġmod ules
Ã §
Ġt ang
Ġrul ing
Ġhe pat
Ġdeterm ines
ro le
il ton
rel s
less ly
Ġmotiv ated
Ġpass ive
Ġdeterm ination
Ġterrit ories
P ost
Ġexp end
ĠD uke
Ġbul k
eg u
Ġp ap
ĠE le
Ġbelong ing
p ur
re ll
Gen eral
Ġf illing
gen eration
Ġtrans f
ĠT ib
ĠGu id
ob e
Ġrel ies
uss ion
Ġv iable
an th
Ġl unch
Ġf rog
ĠI ron
go vern
Ġrecept ors
Ġgu ided
Ġper ipher
Ġinstitution al
ĠKen nedy
Ġsee ks
Ġpay ments
ĠL iving
k o
ry ing
Ġglob ally
Ġpolit icians
Ġlib erty
Ġth inks
Ġch ip
Ġsk ull
Ġover weight
Ġchap ters
ĠA z
Ġpref erences
or ney
Ġn ick
se ts
Ġcirc uits
Ġsurve illance
ĠR ose
Ġpip eline
ĠT aylor
ĠW rite
Ġg land
Ġins pect
Ġinterf erence
Ġinv ited
Ġpal m
ĠP ap
P C
al o
Ġrest ored
Ġmet ap
ĠSp e
Ġpo ems
ĠPr ime
Ġb ands
Ġpat ch
l ink
oth y
en c
B oth
ik i
ĠMon th
ĠN G
ose velt
Ġneighb ors
fl ies
Ġsw allow
Ġde als
Ġblock chain
Ġresil ience
if iers
tern oon
ĠTr ump
Ġgen etics
ig ration
Ġint u
Ġt ired
ĠW atch
Ġdiagn ose
Ġmar gin
Ġdig it
Ġstop s
he ster
Ġch a
Ġrefer ring
Ġstim ulate
su pp
T C
Ġpot atoes
ĠAn sw
ĠS atur
ĠArab ic
ĠY ears
Ġd ow
Ġpath ogens
em ed
H igh
Ġconsist ency
Ġdiscover ies
feed ing
ĠH ay
Ġcomb ust
Ġdifferent ial
ĠRes ults
Sp ec
Ch ildren
Ġm ail
ĠT alk
ick ed
Ġprot ects
p en
Ġ18 00
ĠDou gl
pro cess
ine a
Ġsatell ites
ĠS leep
Ġl ying
ĠElect ric
Ġexped ition
o il
ĠO il
Ġy ard
ut y
Ġen act
Ġrecon struct
ust er
ik es
Ġmain stream
Ġbr ill
Ġstress ed
ilib rium
osp here
Ġr ic
Ġrec overed
Ġcas ual
A nt
ipl inary
Ġapp le
Ġexpl ores
ĠPol ish
ot yp
Ġintermedi ate
Ġrepeated ly
t ics
Ġca ffe
ĠG rant
Ġcr ash
Ġcount ing
Ġphys iological
Ġde ce
Ġimp ression
ĠC omb
e ared
Ġign ored
Ġin ver
Ġlo ans
Ġ197 9
ĠL t
ĠN S
ĠBel g
g rim
Ġpr ide
ĠH as
ĠRes erve
Ġmet res
oca ust
T A
ĠC hemical
ef its
st ead
i ating
Ġgu ides
im eter
ĠRepublic an
Ã³ n
ĠM os
Ġincred ible
y o
Ġh ills
ĠFrank lin
ĠS ac
Ġgen etically
Ġge ographic
och ond
ĠSym ptoms
Ġpath way
ĠL ower
ĠB or
Ġab road
un s
Ġindic ator
Ġres erve
Ġqu e
ĠSpec ies
Ġsens es
Ġad mitted
Ġbo ards
re strial
Ġdisp osal
et ry
n atural
Ġexpl os
Ġcond em
nt hesis
Ġgener ates
ig ma
ĠS ix
ĠQ ur
A g
ĠCar l
Ġnewsp apers
Ġaccess ed
g rad
ĠBr idge
H is
Ġexam ining
Ġun ity
Ġepid em
Ġor n
Ġincred ibly
is hers
is ible
ĠEn ter
Ġcon ve
, '
Ġfail s
Ġprop os
ul ative
Ġd ictionary
our ing
Ġst rand
Ġtim ber
Ġk ings
Ġunemploy ment
ĠN i
! )
id el
w all
im edia
h ops
ĠIndust rial
Ġconsider ations
Ġorgan ize
Ġw ra
Ġgast ro
e ous
Ġrecommend ation
Ġed iting
iff erent
Ġg aining
F ind
st ud
Ġpres um
ĠO R
Ġpick ed
Ġ @
Ġmount ed
t te
Ġat om
Ġn ineteenth
Ġprecip itation
Ġstrength s
Ġdam aging
Ġal gebra
Ġpref erence
Ġdiscuss es
Ġfif ty
Ġdepart ments
ĠIntellig ence
V D
Ä «
ĠB esides
Ġcheck ing
Ġsh ield
Ġdatab ases
Ġfest ival
Ġ5 2
Th ough
ĠT y
io let
Ġelect rom
Ġfram es
ĠE volution
er ness
Ġsh adow
Ġgalax y
Ġdocument ation
Ġdesign ers
ĠSer ies
ĠT ri
ann a
Ġshop ping
as a
ĠR ab
Ġsur re
Ġbeh alf
Ġbow el
the ning
ĠS D
g ood
ĠV ideo
Ġpres chool
Ġme ets
ro b
Ġalumin um
w orks
Ġg ums
Ġrelie ve
ĠF ord
ĠDi abetes
h r
ĠT en
Ġs orts
ĠCommun ication
Ġconj unction
ĠL u
ib li
Ġinterview s
vers ion
Ġprolong ed
ĠM u
Ġmach inery
Ġm akers
lear ning
ruct ive
Ġpow ered
Ġport ions
s ome
Ġso ap
Ġsec re
P P
ĠC ra
h our
ic ul
ord an
Ġa ids
Ġlar vae
Ġview ing
ĠJ ane
Ġmen u
ex pl
W ater
Ġdin ner
ĠR ub
c m
m akers
Ġde hyd
Ġher bs
Ġprec ious
Ġrecy cled
ĠM it
Ġdis asters
ogene ous
ĠC ensus
Ġmanufact ured
N C
el d
Ġtele phone
Ġattempt ing
Ġ ic
ĠLe on
Ġsubstit ute
ĠM aking
Ġground water
ĠY ellow
Ġunn ecessary
p y
ï ¼
Ġsatisfact ion
Ġsy ll
ĠR ay
ĠK im
Ġutil izing
Ġprogram mes
le m
ĠS a
Ġbl acks
Ġcolle ges
s l
ant ine
ause a
ĠJ ean
b ral
ĠMount ains
Ġye ast
ethe less
Ġcross ing
ile y
b id
Ġsmall est
Ġinterpre ted
Ġbet a
Ġspecial ists
Ġ5 1
Ġdis put
W S
Ġeduc ate
Ġcru st
ĠP oll
Ġcontract s
ĠR us
ĠBudd hist
Ġmut ation
ĠMove ment
Ġwe ights
oc hemical
Ġst uck
ĠDep ression
Ġt elescope
per ial
Ġdism iss
Ġsh ipping
ĠL ind
Ġphilosoph ical
Ġconcept ual
in stein
Ġfles h
op athy
v asive
inflamm atory
ro ck
Ġl ig
f ather
Ġal ien
ĠSt one
ris k
Ġassign ments
Ġgener ator
Ġsk illed
up iter
Ġdevast ating
ill ation
ĠG h
Ġbuild s
F L
ĠR og
ĠSy ria
Ġsp ell
Ġab dominal
Ġalph abet
Ġparticip ated
Ġcook ed
ĠP ear
Ġris es
ir s
ĠT ax
Ġpoison ing
Ġdef ining
ac cess
Ġinter val
ĠP resent
Ġhead aches
Ġund ers
ĠI C
Ġgalax ies
Ġshif ts
Ġemer gence
ĠV ers
Ġsymb olic
Ġqu ote
Ġaqu atic
ru p
Ġcampaign s
Ġt y
mon ary
el and
r ass
Ġtun nel
Ġfurn iture
Ġgraph ic
ĠPer iod
Ġm ud
ou b
ont o
Ġover se
Ġcompens ation
Ġv ow
au g
ab etic
ak i
og l
p res
Ġfl ies
Ġparad igm
Ġpro state
Ġenh ancing
isp here
il ly
Ġtremend ous
Ġconver gence
Ġappet ite
Ġfoot ball
Ġm arch
Ġinter vals
ĠBudd ha
A v
Ġcare g
Ġang les
ĠRo osevelt
Ġtransp arent
Ġreg ression
W orld
Ġwealth y
Ġbat tles
Ġprop he
Ġser vers
ap ore
Ġingred ient
Ġ20 22
ĠR out
s un
Ġb ases
ĠN ap
W ell
int on
Ġtravel ed
Ġartif acts
es see
d eg
ĠB ody
vious ly
Ġd ign
ra ge
ĠMar g
ĠB ad
u ilt
Ġmean ings
ĠV e
iz ational
Ġinher ited
Ġcomb inations
ĠPhilipp ines
Ġshort ly
ur red
or ie
Ġenter prise
ĠCont act
Ġcomprehens ion
ĠG reg
Ġver bal
Ġcon form
ĠCon c
Ġ7 2
G E
Ġimm ense
Ġpu pp
Ġche aper
O b
ok es
erv es
ĠC ut
Ġcompass ion
ĠU C
Pro f
ĠE s
Ġfle et
Ġfulf ill
Ġflu ctu
ĠB ow
Ġbe er
ras ound
ĠHis pan
Ġcar cin
6 00
Ġsing ing
Ġext ending
Ġl ith
Ġwh ales
ĠF ive
Ġnurs es
Ġob sc
Ġod d
M E
ĠG ir
Ġdiff usion
Ġdeploy ed
Ġang ry
Ġp ec
Ġwar mer
ĠAm endment
Ġflow ing
Ġb om
Ġcrow d
Ġpip es
Ġcav ity
Ġb eds
il ateral
Ġb or
ĠEth iop
A ug
Ġint ens
Ġte ch
ast ing
D ef
Ġend eav
Ġad ul
Ġaf ternoon
ĠO pp
Ġactiv ation
Ġpul led
ES S
Ġpromot ed
Ġout doors
Ġc od
Ġ198 2
Ġaff il
ĠS E
act ivity
ĠF all
us hes
Ġgra ve
best os
Ġcou pled
Ġvo ices
Ġpharm ac
Ġabs ent
Ġimp osed
Ġneed le
M R
E l
Ġinit iated
Ġvari ability
Ġr ings
Ġco in
ĠN ig
ĠAr k
Ġrepl acing
ed uc
Ġresc ue
Ġut er
ĠBar b
Ġsn ake
ac ular
Ġfar mer
Ġmod es
Ġbel t
Ġcomb ines
ol utions
Ġse gments
ke ys
Ġpollut ants
Ġvari ants
Ġann iversary
H ave
ĠE dition
Ġpl aque
ly n
ĠAr thur
ĠC e
Ġbiom ass
Ġrep ublic
wh ite
ose x
Ġsol ved
Ġunt o
Ġuncle ar
t wo
Ġrelig ions
Ġp ushing
ole cular
ĠAn aly
f n
Ġ5 4
F A
ĠL ar
Ġhistor ically
ĠDef ense
Ġan x
ĠN at
Ġp itch
ograp her
Ġselect ing
Ġres idence
w riting
els on
ĠAr ist
Ġproject ed
oc occ
ĠTreat y
ĠQu ant
M s
ĠThe rapy
Ġheart s
ĠM uh
Ġbelong s
Ġarchae ological
ag ine
ues e
Ġimag ery
f ol
Ġun ited
is er
ĠCh am
Ġdemonstr ation
Ġdes irable
Ġy oga
Ġcheck ed
Ġs au
Ġpoll en
ĠLouis iana
Ġdefe ated
Ġ198 3
Ġsl ide
Ġregist ration
il ty
ĠP arents
Ġcor ruption
Ġdraw ings
Ġmembers hip
Ġ5 6
ĠMill er
200 2
Ġcons p
ĠEduc ational
t r
Ġflu ores
Ġrespond ed
â Ħ
last name
Ġv apor
ĠArch ived
Ġann ounce
Ġfra ud
ĠAcc ount
Ġassess ing
Ġ Ï
Ġra ises
lar ation
aw ay
Ġse arc
sp e
Ġread s
Ġepis ode
M ake
ĠL G
T ake
Ġgr ants
Ġrequ ests
ĠTh ursday
Ġb old
we et
Ġhighlight ed
200 1
ĠUt ah
Ġgovern ance
T ER
Ġres ur
20 18
ĠT uesday
Ġdist ress
Ġceremon y
Ġad mit
ĠF OR
Ġdis in
ĠTh ings
b one
ĠObs erv
ol ith
d on
war f
Ġsimilar ity
Ġpresent ing
Ġor th
Ġcount s
indu ced
ĠP A
Ġch ips
Ġdis hes
g ic
lt ry
in ced
Ġfra gments
ont in
ag us
Ġrecept or
ĠPM ID
Ġprof its
Ġadv ised
Ġover t
Ġworkshe et
ke ley
Ġmix ing
Ġterm inal
Ġposs ession
ang ular
Ġent ers
iling ual
Ġal b
ĠP rize
on ge
Ġret ire
ĠR E
ĠM oh
Ġmit igate
let ter
v ity
h ot
ru ce
c re
ĠCh ap
Ġperson ally
Ġox ide
Ġhypot hes
Ġact ors
Ġdigest ion
pl us
ĠRes ource
Ġmetric s
Ġconsid ers
Ġdra g
Ġaccum ulation
as is
Ġcol ours
ĠP it
d ependent
ĠM ission
u ct
u ana
reat ing
ĠTib et
he ld
are t
Ġreg ulated
Ġclos est
Ġrel ates
Ġphot ography
Ġb ay
Ġb rick
ĠC L
ol as
Ġr ou
Ġlack ing
Ġrad ar
or ious
ĠWed nesday
arm a
D C
ra de
ur ally
Ġinter rupt
Ġrow s
ĠM agn
ĠA str
Ġconsist ed
o en
Ġsens ing
Ġh ate
ĠW in
Ġcon vention
I O
w ill
we ed
ĠCar bon
d ec
w idth
ĠCre ate
Ġle ver
ĠSe lect
G od
Ġmov ies
ĠP i
Ġdepend ence
ĠHawai i
B el
osa urs
Ġloc ate
Ġp seud
Ġge ographical
Ġfor ty
Ġsu ited
Ġ5 3
ĠT ok
ors hip
ab ama
Ġbas ics
Ġflo ating
m outh
Ġmet a
ĠCapt ain
Ġm a
Ġen l
app y
Ġcaffe ine
Ġc her
ĠAdv anced
Ġbreat he
AR S
Ġl y
Ġspeak s
Ġstay ing
Ġ197 5
ĠD or
N ext
ĠArch itect
J an
ĠF isher
Ġper sec
ĠFred er
Ġextens ively
ag g
Ġtra ged
ĠG er
Ġsepar ately
Ġastr onaut
Ġsacr ific
Ġtem pt
l ades
icien cies
orient ed
Ġch im
Ġarrest ed
Ġinsuff icient
Ġcomput ation
Ġcann ab
emb ered
Ġpress ures
Ġmac ro
ĠRel ations
n i
ins ic
Ġfollow ers
sh ore
ĠMem orial
Ġfung i
Ġm urd
Ġfear s
ĠP ow
w hen
Ġ198 1
lu x
it ives
gra duate
Ġdecre asing
ote chnology
Ġcur ious
g ram
oles cent
Ġill um
Ġacc used
ĠTe acher
ĠPub lishing
Ġvolcan ic
iot ics
he res
Ġfe at
Ġasp ir
l en
Ġgif ts
Ġ ions
Ġex em
Ġequ ity
b acks
ĠSm art
Ġpl ug
Ġg ross
P ublic
ĠPlan ning
Ġw ed
Ġfe e
ry ption
Ġprom ised
ĠK at
Ġob ese
Ġun com
ĠCorpor ation
p o
ang ers
ced ented
ĠA ges
Ġcoron avirus
Ġnorm s
sc reen
Ġden ied
ĠCreat ive
Ġv ocal
Ġas set
ĠConfed erate
Ġpoly mer
Ġbe ef
Ġoper ates
P res
Ġlingu istic
Ġch at
Ġbo ats
Ġver ify
Ġre n
Ġsimilar ities
Ġincorpor ating
ig s
ac re
ik h
ĠT ai
Ġc er
Ġpur ple
Ġident ifies
ĠPers ian
Ġcalc ulation
ĠAl bert
Ġschedul ed
he nd
Th ose
Ġhe ated
Ġobst acles
ab s
Ġseem ingly
Ġpat ches
Ġdes cent
Ġgre y
Ġcert ified
Ġfound ations
Ġconv inced
ĠTenn essee
Ġobserv ing
s im
Ġmag ic
Ġwin ning
Ġlic ensed
Ġhost s
Ġ196 8
ur ring
Ġign or
ĠAr gent
ĠCl ark
ĠInd ependence
ĠBas ic
ĠS ex
et us
Ġmonit ored
ĠJ upiter
uls es
ĠP as
Ġm ines
Ġconstit u
Im age
ĠPat ients
$ -
p us
! "
Ġde ple
Ġinc idents
Ġexpl osion
Ġfl ed
Ġbl ame
Ġrein forcement
Ġsp here
Ġste ep
Ġl unar
ĠG ames
Ġpurch asing
Ġind ication
or se
k h
ĠP ay
au nd
Ġdream s
D E
ĠL ove
Ġev ac
role um
sy stem
est inal
ĠN ort
ĠR aj
ĠVir t
Ġh ur
Ġdark ness
Ġg lands
Ġpro sec
Ġcomp ress
Ġb ars
ĠN ich
Ġep it
Ġinvestig ations
p ost
Ġvot ers
S C
Ġplace ment
Ġlo ads
ĠCult ural
ĠB an
ist ence
f ive
ar ms
Sec ond
Ġab d
t est
Ġcorpor ations
Ġchalleng ed
Ġar teries
app ropriate
â Ĥ¬
ĠB ol
ĠAd apt
Ġcomm emor
ĠS ite
Ġbas ket
m us
Ġvari ant
l ah
Ġdeploy ment
od ge
Ġconstit ute
ut ri
ĠTe am
Ġbut t
Ġvolunte er
ew ater
ĠCh ile
c r
Ġt ender
av ed
Ġcar p
Ġinher it
Ġaff irm
Ġ197 2
im ity
Ġinadequ ate
aren cy
Ġth rown
j an
Ġdiscipl ines
Ġdecl ar
ĠAfghan istan
Ġs ore
Ġkid neys
ĠDie go
ĠNor way
Ġar tery
Ġcy t
Ġpos es
Ġins ulation
ĠUr ban
Ġalle ged
Ġhypert ension
Ġge ography
ĠB on
ĠH ad
organ isms
P at
ĠB ah
ĠD ub
Ġag enda
ĠO m
Ġb ip
Ġprem ature
ena issance
Ġd irt
Ġnot ably
rou ps
g iving
Ġbas in
Ġtalk ed
ad ays
Ġcast le
Ġvirt ue
ĠRe qu
w ind
Ġnucle us
Ġunp re
Ġqual itative
ĠBl ock
Ġl apt
Ġmod ify
f at
Ġhead ed
Ġpract iced
Ġbott les
ĠMark et
Ġder ive
Su pp
d em
ĠM L
Ġatt ribute
en ergy
ĠGold en
ĠIss ue
Ġcompet e
ĠAff airs
ĠKen ya
Ġoutperform s
j amin
ĠN et
S E
ul ent
Ġradio active
Ġc ro
Ġcomple ting
Ġdo zen
ĠEff ects
ar ity
oth s
ĠH al
he el
Ġ194 4
ĠK ong
ult ural
Ġthr one
p ose
ĠH unt
pl an
ĠComm and
Ġinform al
ĠS ustainable
Ġstrict ly
Ġca ution
ĠHealth y
ĠC ook
Ġfunction ality
Ġtrig gers
Ġt ear
ath ic
p erson
unc iation
amm a
Ġwere n
ĠFre edom
ĠT al
Ġom ega
Ġtw entieth
Ġfund ament
pt on
ĠP H
Ġbrief ly
Ġed ited
ĠH ong
ĠF A
ĠDec laration
ĠB oy
Ġpass engers
Ġillust rations
ĠPolit ical
he at
Ġtra p
ĠE N
c at
ĠG il
ĠL ie
ad ic
Ġbreak fast
Ġ icon
Ġrele ases
ĠZ e
m ill
Ġ197 6
Ġpul se
Ġsocial ly
ĠL ady
Ġ197 3
Ġmen stru
Ġle an
ĠH ind
iff s
ĠPl ants
Ġgl ory
Ġ194 1
Ġprot otype
Ġless er
f il
Ġpharm aceutical
Ġoff spring
ĠTrans form
ĠFore ign
ĠSatur day
Ġfound ing
Ġ19 18
ĠB apt
Ġenthus i
am ents
Ġsimilar ly
Ġtr ies
Ġmiss ed
Ġmosquit o
Ġsold ier
Ġrail road
op ing
ass ment
Ġconsult ation
Ġles ions
Ġpeace ful
ĠSh ow
Ġmed ian
ĠB all
Ġgraph ics
Ġsurviv ors
ĠSing apore
vel ation
ĠAr men
ĠB ot
m atic
Ġstim ulation
Th us
Ġanaly tical
ĠEar l
O ct
ĠB ob
â ĪĴ
Ġpres erving
Wh ich
Ġadvoc ate
Ġt ies
Ġb es
Ġbrill iant
Ġneg lect
ĠMil itary
ven ue
Ġdisc rete
Ġd rew
ĠKent ucky
Ġwh ites
Ġsuper vision
ias is
s ens
Ġl act
Ġpract icing
Ġcust oms
Ġcont ra
Ġundert aken
Ġunpre cedented
Ġsh o
Ġdemonstr ating
Ġtrib al
p ers
B en
Ġw ax
Ġr ating
ĠHol ocaust
ĠPhil ip
itzer land
Ġpig s
ĠUs ually
Ġman kind
Ġimport ed
Ġalle v
Ġslow er
Ġm ul
Ġex ert
igh ters
ĠM aterials
ĠR od
ĠNob el
ĠRad io
d am
Ġelev ation
am ily
Ġhepat itis
Ġsl ope
es y
ĠIndian a
ĠProp het
ĠE mb
Ġbreak down
Ġreb ell
Ġwell s
Ġg er
Ġres ident
i ens
ĠArch ae
Ġw ounded
Ġm aternal
Ġsurv iving
h ave
Ġlegit imate
Ġpresident ial
Ġdown stream
Ġtit les
Ġce ment
Ġcar rier
ar b
Ġin quiry
Ġlay out
Ġbrid ges
th s
Ġmark er
Ġc ows
ĠC hen
M M
um a
ĠAl abama
Ġd edu
Ġqu ot
C urrent
Ġwor ried
Ġdelay ed
ĠB BC
Ġsm ok
ER T
Ġforg otten
em an
ĠC ert
Ġscat tered
Ġs or
ĠAd ams
Ġsat urated
Ġsug ars
ĠE C
Ġtem plate
Ġfe es
ĠPortug uese
Ġpromot ion
ol is
Ġ194 2
ĠApp l
et on
E m
Ġmel an
Ġvulner ability
ĠN C
ĠBuddh ism
Ġdistribut ions
Ġaccommod ate
ĠStr ateg
let al
es ian
b en
ĠG ame
Ġveter in
ĠR a
Ġ5 7
Ġnum b
ropol itan
Ġsyn chron
ĠSc i
ĠTurk ish
ĠLaw rence
Ġscar ce
lement ary
Ġhead ache
am ous
Ġf art
ash ing
ĠP il
z ens
ĠCol lection
O V
ĠImp act
Ġart ic
Ġsp arse
oven ant
Ġnegative ly
Ġnav igate
Ġelig ible
ĠSc he
ĠB ird
Ġind ivid
n ames
Ġexam s
Ġfoot print
Ġconf ined
u ated
Ġsufficient ly
ĠK al
Ġatt ending
Ġreal m
ĠP a
Ġr um
In tern
y ers
Ġsp ite
Ġmod est
ĠD ak
L C
Ġtra ces
Ġbit ter
g raph
Ġch amp
Ġmicrob es
Ġprov inces
âĦ ¢
Ġpron ounced
ĠP rior
Ġconcent rate
os ures
ĠPrim ary
Ġcontrovers y
ĠG ro
Ġsaf egu
Ġoccas ions
Ġm elt
Ġsure ly
Ġperm its
Ġsp ont
Ġmel ting
Ġpro be
Ġtrans action
im ony
ĠP erson
Ġalt ogether
Ġread ings
inc ial
Ġvolunt ary
Ġjour nals
ĠS i
ĠCast le
Ġg ang
Ġbank ing
ing ham
ĠProt ocol
Ġde emed
ĠS ri
ĠAust ria
Ġl ining
Ġinsp ection
Ġol ive
ĠF acts
Ġcryst al
Å į
h al
Ġtri ps
Ġarbit rary
ĠExec utive
ast ed
Ġ197 8
Ġintest inal
ĠBang lades
isc al
Ġw ool
u ate
Ġter rible
Ġcert ification
Ġstandard ized
ĠI oT
Ġmechan ics
Ġelimin ating
ĠArch ives
Ġworld s
ĠC ru
pl ane
Ġantioxid ants
h as
ri ends
Ġcar ing
Ġequ ilibrium
U D
Ġb ike
Ġperce ive
Ġfail ures
Ġalt itude
ĠC ro
Ġcompet ing
ĠI owa
imm une
Ġpre lim
Ġwar rant
Ġref ined
ĠJ ordan
Ġin k
Ġpan ic
Ġimpl ant
ĠCon sequently
D ec
Eng lish
Ġ6 6
Ġlater al
F T
lic t
ĠR enaissance
C or
c ription
Ġsystem ic
Ġt ale
ĠMe chan
ject ive
Ġland f
Ġimp aired
Ġentertain ment
ow ed
ĠM ong
Ġelimin ated
Ġcare ers
ĠStan ford
ĠF em
Ġb ore
r ish
ĠR ap
Ġo sc
Ġrec ru
Ġneurolog ical
ros ion
Ġno ble
Ġto mb
Ġadvoc ates
Ġreform s
ĠPart icip
Ġj et
Ġobt aining
Ġinf l
Ġworks hops
P ar
O rig
ect ing
ru bs
Ġun healthy
Ġenvironment ally
Ġin ability
ĠC ertain
eren n
Ġrail way
Ġb icy
Ġexam ines
Ġmaxim ize
Ġ9 7
te in
Ġcommand er
Ġcl osing
im ated
as ia
Ġcurrent s
ol lo
ĠIn sp
ill ery
res istant
ather ine
ĠW y
Ġse ats
Ġint act
Ġl enses
Ġo zone
Ġprior it
Ġec ology
e u
Ġpro claim
ock ing
Ġpneum onia
f our
ĠS ound
Ġd ated
forest ation
ol ia
Ġinc ons
ĠG ive
ĠHistor ic
Ġb apt
is a
Ġ ^
Ġc ups
M us
ier ce
ĠV ill
ĠMar ia
Ġagree ments
Ġprelim inary
Ġn ausea
Ġlegisl ative
Ġdiv or
Ġcontin ually
G A
Ġtra ins
Ġt uber
Ġbeh ave
D i
ĠAb original
Ġ Ø
Ġsc rew
Ġdys function
Ġfor b
dep th
Î ½
Ġcertific ate
âĢ¦ .
Ġrein force
ĠSy ndrome
Ġtravel s
ĠNew ton
Ġpre jud
ĠGree ks
Ġinterf ere
Ġcontroll er
p ath
Ġto dd
Ġtrans cript
Ġder iv
ĠC opyright
ĠL ic
Ġimpact ed
Ġout standing
k m
ĠC hemistry
Ġinf inite
Ġperform s
Ġfirst name
he rence
ig ion
ĠLiter ature
f u
Ð¾ Ð
Ġem peror
Ġwas t
ĠSum mer
Ġw ires
ĠHam ilton
ĠDem ocr
Ġtrig gered
Ġnew born
Ġdel ight
eth yl
Ġrem embered
ĠV eter
Ġgr at
ĠG PS
Ġdep icted
Ġincl usive
ĠQu estion
reg n
us ions
Ġsil ent
H er
augh ters
Ġad min
o ard
ĠMean while
F ree
im b
ĠS ant
ic ut
ĠIm perial
Ġ197 1
Ġapprox imation
am el
ody n
Ġmanip ulation
ĠV ery
Ġ196 5
Ġcons olid
Ġmem orial
Ġinv al
Ġdispl ace
l ies
Ġoff set
ĠP ersonal
Ġgr asp
ĠM RI
ĠU pper
Ġinsp ire
C opyright
ith ub
D ata
Ġload ed
Ġ196 4
Î ¿
Ġtru ck
ĠWh it
Ġsens ation
ĠO d
Ġim plicit
Ġ196 9
Ġexclus ive
ĠIn nov
all ing
re as
M on
ĠEm ploy
ĠB road
o z
Ġlong est
Ġo k
ĠB ox
ĠF unction
ĠTer rit
Ġsing ular
Ġse am
un ctions
v as
pl er
Ġm ast
Ġf its
Ġth umb
Ġactiv ated
Ġwork force
Ġsw ord
Ġcreat ure
Ġpries ts
ĠT rib
Ġl ighter
Scient ists
Ġmaint ains
ion ed
Ġju ven
Ġd well
Ġext inct
Ġle ts
T ime
Ġt et
od s
ed ed
ĠL LMs
ĠD ate
In f
Ġb anned
Ġbill ions
ĠEff ect
ĠJ oh
W ork
D isc
ur ate
ĠIm ages
Ġfresh water
ot ive
. (
Ġdiv isions
Ġpl astics
Ġpositive ly
it ar
ĠIsrael i
ĠDe b
ĠE M
Ġra ces
Ġvot es
int estinal
Ġunder m
K ey
Ġed it
c ount
Ġret ained
Ġcross ed
Ġsec ular
ov a
ĠDise ases
ĠSw itzerland
D own
Ġrev ised
Ġexplo itation
ĠCount ry
ĠH ell
r ank
c ence
ĠK ings
ĠHT ML
Ġpy ram
Ġpoint ing
Ġev olve
Ġglass es
Ġ196 7
Ġrul er
ĠR oss
Ġmus h
or ical
Ġlandsc apes
ĠFram ework
ĠOff ic
Ġinnov ations
k g
Ġchart s
P E
Ġcompris ed
b its
Ġfre ed
b ird
est ab
Ġ5 8
ell ar
ad i
Ġwithdraw al
Ġremed y
ert o
ze ch
ĠD raw
Ġsc reens
Ġchem otherapy
ĠG as
Ġche cks
Ġ193 9
Ġind o
Ġcounterpart s
Ġgro cer
it ational
Ġpure ly
ep s
is l
Ġ20 30
Ġactiv ists
10 16
op ter
Ġdescend ants
Ġg ay
th ird
sp ace
ag ram
Ġbow l
ĠMethod s
Ġstay ed
ĠT ow
Ġwet lands
ĠW as
Ġw ounds
ul ator
se en
Ġen rich
Ġimpair ment
Ġlaw n
Ġ1 10
Ġsc rap
b ility
Ġmon etary
ĠAnt i
Ġ âĢĻ
Ġbul bs
Ġstr at
Ġ1 30
ĠBer keley
al in
S R
Ġsurround ings
ĠT B
Ġnav al
ĠP V
ac ity
Ġcoll aps
Ġindivid ually
E urope
Ġcombust ion
Am ong
M at
ĠExper imental
Ġtit led
Ġjud ges
ĠB uild
Ġunc ons
Ġb ats
on ics
iz able
Ġover head
Ġ197 4
Ġ7 00
ĠTor onto
ound ing
ĠP ra
Ġteach ings
ĠV ision
ĠA ra
ĠBro ok
ocy tes
Ġbr ut
he um
ĠUS DA
Ġf ired
p owered
ĠSt aff
ĠMal ays
Ġachieve ments
ĠTor ah
Ġis ot
I E
( )
os itory
ĠP ict
Ġve ins
Ġstri kes
oc ate
Ġst ir
Ġstat ue
Ġreh abilitation
Bl ack
ot ional
Ġdest ructive
lud e
S D
ĠCol lect
we alth
Ġr anks
Ġd amp
Ġinvestig ating
ĠMuh ammad
Ġsil icon
av y
Ġjo ining
un es
Ġcitizens hip
pro of
ĠNig eria
D is
Ġs ake
d ig
Ġwar ned
ĠAl f
p hen
at ics
F R
Ġexplo it
Ġcrit ics
Ġtable ts
Ġstri p
Ġcrit ically
Ġharm ony
Ġreg ards
Ġlearn s
ad ian
Ġprim itive
ĠP ediatric
am bo
Ġup set
Ġfung us
Ġlast ed
Ġcon sec
Ġdis se
ĠYou th
ĠL es
Ġto ll
ĠDep ending
Ġparas ites
Ġemploy er
ĠOr thodox
Ġv ic
Ġinev itable
ĠAccess ed
ĠM IT
Ġacknowled ged
ĠAgricult ural
K now
Ġpou ltry
Ġint rig
u y
ou stic
ĠWorks he
Ġdisp ute
Ġwar fare
Ġsatisf y
Ġunc omm
re hend
p in
Ġcultiv ation
ĠE D
Ġpe as
Ġs ends
Ġblock ed
Ġmod ifications
Ġantioxid ant
Ġwitness ed
Ġco h
b ial
Ġs ink
ĠPark inson
ĠCo al
ob acter
im ination
S ch
Ġg el
Ġwor ms
Ġret ro
v o
Ġdyn am
Ġmod ification
sec ond
ug ar
Ġrele vance
Ġcomprom ise
ĠAl ways
Ġfoss ils
st able
ĠC redit
ĠCub a
Ġm asks
Ġwe eds
ĠC ass
Ġ194 8
g roup
enn is
ros is
ĠA L
Ch apter
Ġtransport ed
T ube
osc ow
Ġsix th
Ġoutbre aks
ys ics
ĠM aine
Ġdep ict
uc ks
Ġsurge on
Ġtra pped
Ġsn akes
Ġpra ise
Ġo re
ĠAuthor ity
ĠSoft ware
ĠH ou
ers hip
fort able
ĠGen erally
ra ul
ĠReg ional
F i
Ġl uck
Ġsubject ed
ĠK it
ĠW olf
Ġo ct
Ġprom ises
Ġpass ages
pro t
Ġjurisd iction
ĠCom mer
Ġleg ally
Ġmosquit oes
Ġrig id
Ġtoile t
B L
Ġat e
Ġgeomet ric
ĠAl ong
Ġstr ings
Ġbre eds
ĠB rad
Ġse as
on i
Ġ19 14
it oring
com put
f ram
Ġgu ilty
Ġaccording ly
Ġb ounds
Ġplan es
Ġaut umn
Ch ar
Ġpart ition
anc ies
AN D
Ġ6 2
Ġco ating
ĠB egin
Ġbur ial
it ime
Ġadjust ed
Ġsupp ress
Ġelectrom agnetic
ĠSt ock
ĠF eed
Ġtoxic ity
ig ating
Ġcra fts
Ġprosper ity
Ġlear ner
l ip
Ġdirect ory
Ġtherap ist
ij uana
ĠGen esis
Ġ6 3
ĠC ust
ĠBanglades h
Ġmicrob ial
Ġhier arch
ĠS outheast
ĠR ain
est hes
Ġemphas ize
est eem
Ph oto
ch i
Ġb esides
Ġpack ed
ĠE b
Ġc ater
Ġprop oses
Ġc ock
Ġthreat ening
Ġ197 7
Ġl ux
OR D
Ġinsert ed
ĠL oss
Ġflow ering
ul as
ĠE V
Ġdam ages
Ġc ous
ĠChar acter
on duct
roph y
ar an
Ġal leg
O UR
Ġsatisf ied
plic ity
ar bon
Ġconcept ion
ĠInit iative
Ġcoord inate
in ar
ĠProtest ant
Ġstraight forward
Ġdis abled
Ġr ival
Ġtrans it
is y
Ġeconom ically
Ġfail ing
Ġstrugg les
Ġmit ochond
ĠS M
Ġar ises
Ġut ter
ĠAll iance
Ġret ention
ot le
Ġpub lishing
Ġter rain
ĠSim on
ir k
Ġproblem atic
Ġsequ encing
u z
o in
ne e
u i
op or
Ġharvest ing
Ġ19 17
ĠJ oint
Ġmicro bi
Ġcompris es
Ġy og
Ġan k
Ġinv isible
Ġkern el
Ġdes per
ĠAll en
Ġoutl ined
b led
S ometimes
ĠT our
ĠBe ach
Ġdeliver ing
Ġp orts
hem atic
Ġdetect ing
Ġmill enn
Ġexhib its
Ġdiss olved
ar p
Ġfeas ible
arm ing
Ġhoriz on
c ost
ĠL anc
Ear ly
Ġe ternal
lah oma
Ġgall ons
Ġinf o
Ġ5 9
Ġb od
Ġgra b
ĠFin ancial
Ġstret ching
Ġpropos als
Ġdow nt
Ġhung ry
ĠBen jamin
} $
Ġwaters hed
ĠTe le
Ġ ]
per ature
m ates
ĠH ans
Ġsettle ments
ĠPat rick
d y
ĠE aster
Ġfact ories
ign ment
Ġafter wards
ĠG i
Ġrecogn ised
Ġod ds
ac erb
m ind
Ġop io
Ġd ump
Ġroll ing
Ġdesign er
Ġtri angle
ĠT ogether
iv ated
Ġj ack
od al
Ġbu g
Ġfor cing
ĠMathemat ics
ĠC ab
nt y
ĠDi agn
Ġtransl ate
Ġperiod ic
In ter
ĠH un
Ġinter conn
n ote
Ġhop ed
ag a
ch ild
Ġpast e
Ġcort ex
Ġinstruction al
st an
l an
Ġcent res
ĠSy d
pp ers
Ġcerv ical
ĠPro b
n ut
Ġexp on
Ġpl ural
ag ger
Ġquestion na
Ġsod a
Ġrecip e
if iable
th reat
s ite
Ġdies el
Ġpo le
Ġr het
Ġillust rates
o vers
S everal
Ġsome how
Ġstop ping
Ġsu cc
ĠA B
Ġ ||
Ġle verage
Lear ning
ĠAl b
ĠW inter
Ġdisapp eared
ĠA y
th y
Ġshoot ing
ĠUk raine
ul atory
Ġal kal
S ur
ight ing
ĠDougl as
ĠSy n
Ġf ool
Ġunder water
ĠN urs
er k
Ġrequest ed
ĠAct ivity
Ġflood s
Ġpot ato
ĠCurrent ly
Ġwat ched
ĠR ac
Ġorgan izational
Ġform ally
Ġdr illing
ĠCons erv
Y et
Ġwh ale
Ġped est
ag u
Ġres olved
Ġcru el
A ct
N T
p her
Ġmunicip al
Ġchar ging
Ġdemand ing
ht m
Ġur gent
G B
ĠCap ital
Ġp umps
ĠAn th
Ġmyth s
H ar
art icles
Ġcultiv ated
Ġ q
Ġcor rection
unct ure
ĠB eng
ceed ings
Ġc ram
ĠSwed ish
ĠSt ress
it ches
Ġreprodu ce
iz oph
Ġswit ching
Ġcondition ing
Ġr ash
Ġf riction
Ġspec ify
Ġepis odes
Ġinvent ory
ĠReg ion
Ġc el
ĠSk ills
Ġshell s
Ġindu ce
ĠF ollow
Ġsan ct
och astic
ogl ob
D es
ĠM as
Un fortunately
w ich
im ore
Ġrobust ness
Ġrestaur ants
Ġearthqu akes
Ġse af
Ġval ued
ĠA er
Ġhar ness
ĠV ari
Ġwe ed
ĠEx cel
Ġpar ish
Ġinstruct or
Ġpub lish
ĠMay be
ĠBas in
Ġra m
Ġincent ives
Ġinc om
Ġgener ic
Ġ6 8
li hood
ĠPop ulation
ĠP s
Ġform ats
ĠF le
h is
ĠAnd erson
f ood
ĠF at
S ym
ĠR oc
Ġas bestos
ĠAnt on
Ġdr ill
Ġcomp iled
ĠP ast
Ġapprox imate
Ġapprec iation
ĠProble m
Ġper ceptions
u ly
Ġev olving
ĠMult iple
mon th
il i
t w
r ative
Ġgard ening
Ġvent ilation
Ġintest ine
Ġrob otic
Ġembra ce
g ithub
p ack
az a
Ġd os
cer pt
ĠR os
Ġarrange ments
F P
p op
Ġdel icate
v ia
Ġrefrig er
V is
Pub Med
ĠG round
Ġ6 7
ĠC ond
Ġimm ers
ĠW i
Ġhas n
Ġs our
ab ase
Ġconn ects
Ġst ain
Ġpost ure
ĠRec on
Ġp iano
ĠTe ch
Ġabd omen
izoph ren
Ġhand ful
Ġl iber
Ġuncomm on
Ġst ocks
Ġinf rared
st yle
ogen esis
Ġdraw s
Ġtomat oes
ig nty
Ġdo zens
Ġnetwork ing
199 9
ĠBel ow
Ġexclud ed
p ub
ĠUn iverse
J une
ĠA ward
ĠS ong
Ġalign ed
Ġt ears
Ġb on
Ġ18 0
re ach
ĠTest ing
1 50
Ġm ant
es ar
ĠL uke
Ġo ak
Ġne arest
Ġappropri ately
Ġv oy
ad ows
ul se
Ġam ph
Ġst amp
ĠD al
ĠPalest ine
Ġtraum atic
Ġuncons cious
Ġan a
Ġen erg
z es
ul iar
% ),
ĠProble ms
ig e
Ġd ot
Ġg ently
point s
Ġperipher al
Ġsign ature
re a
Ġex acerb
Hist ory
Ġmon arch
ĠSyd ney
Ġinf er
Ġwalk ed
Ġattach ment
Ġab st
te ch
an ia
Ġen roll
Ġre wards
Ġb iblical
Ġrece iver
Ġmob il
com a
Ġbreak through
Ġnegot iations
Ġclin ic
Ġprof iles
we ek
ĠâĨ ĳ
ax is
ro ts
art z
em en
Ġcon gest
Ġ196 3
Ġqu oted
Ġqu een
Ġapproach ing
Ġinvest ing
Ġelabor ate
ĠB ishop
b uilding
Ġlat ent
sel s
ast ically
Che ck
ĠO w
ĠImm un
Ġmon aster
Ġwell being
as i
Ġhier archy
ĠMag azine
Ġfol ks
Ġoptim ize
ier ra
ĠS in
Ġexcept ional
Ġunt reated
ĠTra vel
Ġpro c
Ġmicrosc ope
at is
Ġdiam ond
ĠB ed
ĠM oscow
ĠCho ose
Ġrespond ents
Ġent ries
ant e
S ign
D id
Ġcor rupt
ig uous
volution al
Ġdeterm in
ĠDen mark
Ġflu x
ĠLt d
Ġappl iances
h ome
ol ation
Ġh ub
Ġgeneral ization
O ut
Ġperman ently
p ret
b ound
Ad d
ĠF L
Ġwhe els
Ex pl
Ġa u
eng u
ĠPhilos ophy
Ġformer ly
Ġn asal
ĠSp ect
ĠE instein
M ean
au x
ĠL ink
F ollowing
Ġan ts
Ġreflect ing
Ġsimpl er
Ġsc ans
Ġcryst als
Ġmat ches
Ġanx ious
B et
Ġtem ples
Ġspir its
ĠW ords
Ġth ou
sh ot
Ġsurpris ingly
Ġpass enger
Ġcount less
ĠConnect icut
Ġseiz ures
at ivity
lim ited
M arch
Ġult rasound
Ġr iding
Ġgl uten
ĠF ried
Ġteen agers
Ġpursu it
Ġsupport ive
ĠC amb
AT E
Ġn urt
ĠM un
ret ion
ĠP ack
rox imately
ĠB ud
Ġun ions
Ġgas oline
Ġball s
Ġpress ing
ĠT R
Ġterm ed
Ġneighb oring
Ġrad ius
Ġint ric
Ġtour ists
ĠIndust ry
ii i
ro st
O G
Ġtrust ed
Ġhead ing
Ġfract ure
ĠS oci
Ġvalid ity
Ġrelax ation
Ġber ries
Ġsubstr ate
ĠEv idence
Ġlik es
cont rol
Ġor ch
Ġlect ures
Ġmoment um
an ic
Ġprox imity
ĠH ug
ĠC zech
Ġco operative
Ġport able
Ġd warf
ĠExt ension
Ġgod dess
Ġstreng thening
Ġpal ace
Ġo un
Ġhe s
ĠT erm
Ġm as
ĠW right
Ġprior ities
G ood
ĠBit coin
Ġass ass
ĠO ak
Ġdis char
Ġemp athy
Ġinst inct
Ġmet all
cul osis
ĠCommun ist
ĠD og
Ġr ip
Ġdign ity
th an
Ġuncom fortable
Ġunw anted
Ġbl oom
th a
Ġsusp ended
ot hel
ing ing
i pt
Ġam bit
Ġref ine
Ġsubject ive
ard o
Ġsec ured
Ġastronom ers
d irect
ĠK ind
Ġremed ies
Ġed itors
Ġharvest ed
Ġguarant eed
P M
int erest
ĠE sp
ĠImpro ve
Ġel astic
p it
Ġcomp osite
Ġapp les
ĠC NN
Ġel ite
cell ular
ĠL akes
c ap
ĠU RL
Ġtr unk
Ġsil k
Ġtransp arency
h ol
ĠEconom ics
Ġlower ing
Ġcompat ible
ĠNe v
ĠMo ore
Ġcompar ative
ran ch
Ġs ins
ĠG and
ĠCl oud
ĠE at
og rams
Ġburn s
st age
Ġdef icit
on ut
ow ing
Ġ194 3
m ay
Ġmetap hor
ĠOk lahoma
ĠRec ently
ĠMem ory
ĠPh oto
A f
ĠPol ice
Ġun ified
Ġenh ances
ĠS el
Ġdisc ourse
Ġm ad
ph a
Ġtraged y
oc ene
Comm on
Ġst ro
p iece
Ġtrou bles
Ġland ed
ill es
ri ans
ur ities
erv ice
ou ch
Ġb ureau
Ġs its
ĠB urn
Ġindo ors
aut ions
Ġprol if
ĠD ick
Ġrecip es
Ġpoly nom
Ġpresent ations
ĠB rig
ĠB os
ĠR F
Ġfro st
Ġcaus al
ĠÂ »
ĠComp ar
Ġdry ing
Ġadvers arial
end ix
val ue
Ġagg ression
oc ide
Ġstimul i
Ġtur tles
Ġcompan ion
Ġcor related
ĠGen eration
Ġpot ent
ar on
Ġcomp elling
sp eed
Ġtarget ing
Ġw ishes
au nt
ail and
ĠWal ter
ric es
Ġconnect ivity
ĠEurope ans
Ġstrong est
H el
Ġwast ewater
u pp
am ation
F ood
ã Ģ
Ġdr um
ĠSat urn
Ġinf erior
Ġl in
Ġe ager
T O
oc ur
opor osis
ĠDis order
H R
ĠLG BT
ĠH art
yp ical
un ks
Ġam mon
Ġfeather s
Ġpenal ty
r idge
Ġevery body
Ġbul b
Ġimp ed
ew orks
Ġprop ri
iol ence
Ġstimul us
Con n
Ġrig orous
Ġall ocation
le ans
Ġret ired
ĠT aking
Ġcivil ian
Ġa rom
ĠBet ter
Ġaltern ate
F eb
ĠT ask
Ġd ens
F e
ĠSu ccess
Ġinteg rating
ĠC ov
Ġn a
Ġpost erior
G reen
ĠG ospel
Ġoblig ations
el ed
Ġmyster ious
Ġar sen
A pril
er ce
Ġkey board
Ġu pt
ef t
ĠPerform ance
ĠG ram
ĠF ox
Ġall ies
Ġcar go
E ff
Ġform ulation
Ġsulf ur
00 00
ĠM R
Ġur inary
S M
m id
Ġchromos ome
ĠU ntil
ch a
Ġpract ically
ra ce
Ġp erenn
Ġl ion
Ġcommunic ating
Ġassemb led
Ġc itation
Ġhop ing
Ġprocess or
Ġrec ruit
Ġap ost
ĠÃ Ĺ
elt a
ro sc
Ġf ost
Ġdef ence
Ġsex ually
ĠF est
Ġset up
Ġ Ù
Ġgo ver
Ġillust ration
Ġdram a
Ġtime ly
Ġincom plete
Ġabnormal ities
new s
s ize
ĠCle ar
ĠH ait
ĠS kin
Ġbur st
Ġelectro ly
Ġtr illion
ĠAd ditional
Ġad hes
Ġlive lihood
Ġf ans
ig o
ĠYou Tube
ĠS O
Ġdiff ers
Ġbirth day
Ġaer ial
Ġhom eless
ĠWe ight
Ġtou ching
Ġv ascular
= =
Ġh ob
Ġsm ile
Ġacid ic
ĠK y
l ie
Ġhand led
ĠEx ercise
Ġpuzz le
Ġ9 8
L ife
ĠTechn ical
ĠH az
ĠAng lo
Ġwas hed
Sc ience
St art
ĠAnn ual
Ġfree zing
ĠMc G
ĠDak ota
Ġinc omp
il ies
ĠD ental
it ated
ĠVen us
Ġcontact s
Ġallev iate
al ry
ĠBy z
Ġnation wide
Ġpec uliar
Ġab ortion
Ġredu ctions
em ics
M c
Ġspec ially
rep resent
ĠBab ylon
Ġbuff er
ĠAlex and
Ġinf est
Ġ6 1
Ġd a
Ġres ort
ann y
ĠG ib
ĠL ank
Ġ18 80
Ġp ound
Ġcub ic
Ġrespond ing
ĠN uclear
M r
Ġdisc ount
Ġpe an
Ġw re
omet ry
Ġle uk
Ġinter ven
b es
ĠPre vent
ĠExpl ain
Ġclar ity
h ouses
ĠAp ollo
Ġtour ist
R et
ĠL am
ĠT ool
ĠAg reement
ĠC C
ir ie
Ġacceler ate
an alysis
Ġcur iosity
t i
Ġpredominant ly
Ġre pt
in ters
Ġpredict ive
D oes
ĠPh arm
he w
osy nthesis
est y
Ġnot ing
op hers
Se pt
Ġ18 50
ĠDel hi
Ġlit ter
Ġsupp orters
Ġtempor arily
) )
Ġwhere ver
st ock
Ġapp ar
Ġobl igation
ĠPro ceedings
Ġen force
ĠNap ole
Ġver ification
Ġdisapp oint
M in
m other
is an
Ġcru c
ĠEmer gency
Ġdes ires
ĠFed eration
T E
ĠJud a
Ġrandom ly
Ġsil ence
iv ic
L a
op sy
ĠSar ah
Ġton nes
ĠL oc
TS D
Ġsh ops
Ġlike wise
ĠAl g
Ġcook ies
H C
Ġsuper vised
Ġun su
Ġdisc iples
bre aking
Ġshel f
ĠT her
r ator
Ġambit ious
Ġ194 7
w elling
ĠIn v
Ġadvent ure
Ġimper ative
or b
Ġcomplement ary
Ġlast s
Ġb ol
light en
Ġmembr anes
ĠNorth west
Ġacceler ation
Ġ18 90
al g
Ġt ent
Ġsh ame
Ġbl ade
Ġprohib ited
ache lor
Ġfle e
Ġgrav itational
Ġoff ensive
ĠBi ological
f ting
Ġvalid ate
Ġguarant ees
Ġrecogn izing
ro d
ĠHig her
Ġlet ting
ĠDet ection
Ġpet ition
Ġcr ude
ĠI L
Ġtr im
ific ant
uten ant
Ġmicro organisms
du e
ĠKh an
Ġdisag ree
t ar
Ġ á
Ġoccas ional
exp ensive
Ġst oring
Ġclim b
v ic
ace ous
Ġparent al
Ġint im
Ġexcept ions
Ġse ism
ard less
ens ing
Ġmand atory
oler ance
ob ia
ne ath
pro f
Ġ19 10
Ġprodu cer
ĠS eed
Ġfather s
it ects
ĠEval uation
Ġadul thood
Ġmedic inal
Ġa ver
Ġdet ector
Ġexc ite
ĠD E
Ġm esh
Ġbackground s
Ġgra zing
Ġrest ing
el le
ĠO ri
Ġd aughters
str ong
Ġdet rim
us ually
Ġexpress ing
Ġs ie
Ġd olph
Ġcapital ism
ĠD er
Ġqu eries
Ġtreat s
ĠOr d
Ġfit ted
Ġbe verages
Ġsn ack
Ġr ust
ester day
S ocial
iat ry
Rem ember
Ġpr inter
Ġantib ody
Ġhigh way
Ġresp ected
Ġchar ity
cons cious
= "
le ys
Ġsh ark
b n
le vant
re port
Ġbus h
Ġac re
+ +
ke eping
Ġenc ryption
Ġfart her
ĠT ell
ĠPart ners
Ġc ues
ĠQue ens
Ġfavor able
Ġselect ive
Ġlink ing
Ġqu otes
ul ph
od us
ĠHow ard
Ġsp ill
Ġcar ved
Ġcommission ed
verse ly
Ġvis ually
D av
ĠE ating
disc iplinary
Ġworth y
Ġwater ing
Ġa esthetic
ĠPer u
ĠTh om
Ġve ctors
ĠOr leans
Ġshif ting
Ġsoci etal
Ġtraject ory
Ġmuseum s
Ġfif teen
Ġauthor ized
Ġadvert ise
S L
Ġwild erness
Ġret reat
ĠWe ather
O U
ĠSo il
199 8
P oint
ill er
ĠC M
oub ted
S I
Ġgradu al
Ġorgan izing
Ġd ermat
ĠH ope
Ġ10 1
Ġsub mar
ĠComp an
ĠF ocus
al ia
Ġemphas ized
Ġexem pl
raul ic
b irds
ĠV I
ĠD h
Ġwood s
Ġrev ision
enn y
ĠSp eech
ri ors
ist le
g ly
Ġeas iest
ĠT ypically
ĠOtt oman
est het
ĠAct ivities
ä ¸
ĠR un
Ġport rait
Ġm ol
Ġpul monary
Ġadvance ment
Ġlaw yer
Ġh anging
H aving
Ġdyn asty
N R
ĠB ase
id ation
Sim ilar
Ġshort age
Ġfr ight
Ġden y
ĠAl ber
now ned
ress ions
Ġpack et
Ġ196 1
Ġaut onomy
ĠB ron
ry st
F l
ĠP RO
Ġjud icial
ĠH yp
Ġparticip ant
Ġunc on
ĠN ile
Ġmit igation
Ġden om
ĠL ive
Ġphosph orus
ant ry
ĠCour se
s ight
Ġphilos opher
Ġtact ics
à¥ į
Ġlim bs
od d
Ġretrie val
ĠB and
Ġsan itation
l aim
Ġb ub
Ġmic row
Ġarchitect ures
Ġple asant
ĠVictor ian
izophren ia
ĠS now
Ġshar ks
ater n
Ġjust ify
Ġcolor ful
f lu
ĠC and
Ġs emic
Ġbare ly
Ġcomp ute
Ġany way
ĠEd itor
ĠOpt im
Ġy ards
Ġlim b
Ġcounsel ing
ĠReg ular
ĠFre qu
Ġneighborhood s
ĠÂ ±
ĠFreder ick
ĠS QL
20 20
Ġutil ization
Ġre ass
Ġmin istry
ĠBro ther
Ġcyl inder
ĠCh air
Ġentreprene urs
ĠPlan et
m i
Ġdem ographic
Ġex it
ĠCon cept
tra ined
ĠE ve
o ad
Ġgar lic
Ġfisher ies
Ġr if
Ġgl ue
Ġp iv
Ġmat urity
ing e
à ¸
ĠT otal
Ġfil ed
ĠHar ry
i age
N on
Ġtr ash
Ġrel uct
Ġshould ers
ond er
Ġsign aling
Ġh ay
Un iversity
Ġreact or
ĠN an
Ġt ire
7 00
Ġp ad
Ġpark ing
Ġdocument ary
ĠD ark
Ġd ye
c ils
Ġbul let
Ġrul ers
Ġj ar
Ġp ear
Ġsh ower
il age
ĠRef erence
w alk
Ġpredict ing
ĠTh ailand
op en
ĠS ab
ĠB ull
ĠT ips
T HE
ĠD ur
ock ets
Ġoutput s
Ġritual s
Ġ18 60
ĠBe yond
Ġspot ted
mark et
Ġbl end
Ġa meric
ot ine
O ff
Ġright eous
Ġhe ct
ĠPl us
ĠAm b
Ġcool er
Ġ6 9
Ġl augh
Ġdemand ed
ĠF oot
Ġpun ct
Th ree
Ġcl ues
Ġ18 70
Ġg ig
Ġth ir
ĠT a
por al
Ġeleph ant
T R
Ġfirm ly
ĠTai wan
Ġjew el
Ġmon op
Ġspec imen
Ġdep ressed
ĠCur riculum
ĠHy per
ĠE ye
b ot
m ans
ĠMarsh all
Ġsp ider
ĠCh i
Ġdec iding
v able
ĠEvery one
Ġtext book
Ġfluor ide
res olution
Ġfant astic
og ical
ĠC os
Ġgau ge
ĠCit iz
br ates
ĠAntar ctic
Ġstress es
ĠD ra
Ġerect ed
Ġ ib
rolog y
Ġp osed
Ġ7 8
Ġ196 2
ĠMc K
Ġfriends hip
ol en
20 19
Ġep ic
Ġrestaur ant
Ġrat ios
Ã ¦
Ġtre asure
Ġclaim ing
Ġsal vation
pris es
Ġrecre ational
ĠAut om
Ġact ed
Ġresid ual
Ġv end
Ġec o
Ġst ew
P N
ĠV erm
Ġpil grim
ĠLe v
ĠC art
is ite
Ġfract ures
Ġhot el
n as
Ġcou ples
Ġpat ron
y st
Ġas leep
ch ildren
ĠCol omb
ct ica
Ġt ie
ĠVirt ual
ĠT s
rag on
W hether
h n
âĢ ²
l anguage
Ġosc ill
ren al
hold er
Ġholid ays
Ġdecl ining
Ġter restrial
ĠSw iss
Ġprevent ive
ur u
ĠCh annel
Ġappro ached
ĠPar ks
ed ience
Ġst ays
D NA
Ġcar n
ad en
Ġdeal t
Ġp ist
pect ive
ring e
Ġgastro intestinal
Ġfl ags
ĠSp orts
Ġhead quarters
AC T
Ġ7 7
ri ages
ĠL E
St ate
Ġnut rit
B o
ut ter
Ġbroad ly
Ġanim ation
ĠW ang
Ġaccess ibility
s hip
ĠF if
Ġdefin itive
im s
Ġsovere ignty
Ġexp orts
Ġtra ced
Ġbat t
Ġve in
Ġfol iage
it ably
Ġgover ning
Ġexec ute
Ġto y
op ard
Ġspect ral
B ook
The ir
ĠProgram me
Ġcoll ision
rop y
ĠN elson
ul us
Ġl ady
aud i
Ġan emia
ĠK a
Ġpull ing
Ġg low
Cl ass
ĠProf essional
Ġp ile
ĠUnivers al
Ġsp rou
Ġconf using
ĠCP U
esthes ia
Ġemb od
oph il
Ġarm ies
Ġcapt uring
om orph
te g
ĠOlymp ic
el ong
ut o
Ġ8 8
flow er
Ġcompar isons
ĠLess on
um m
Ġscr atch
ith m
Ġrend ered
Ġde af
Ġprot ests
Ġup coming
Ġrender ing
Ġkn ock
Ġexerc ising
ĠS alt
Ġdin osaurs
' '
Ġkind ergarten
min ute
ĠF ile
Ġintr insic
F orm
ĠRec ords
Ġtom orrow
b ling
Ġfit ting
Ġadministr ators
Ġswe at
Ġspecific ations
Ġconsequ ently
ĠEvent ually
Ke ep
Ġcomm erce
ĠB art
ĠDom in
ĠTra ditional
old ing
Ġ196 6
we g
Ġpet roleum
ĠS A
less ness
Ġcra w
lo ads
ĠChrist opher
Ġaband on
ĠGuid elines
Ġmar ijuana
ĠSim ple
ĠH ud
Ġtru cks
ĠBalt imore
Ġ14 0
Ġautom ation
ĠV ien
ĠPen insula
n utrition
ens is
ĠSud an
Ġadjust ment
W A
ĠIsa ac
Ġbe aches
Ġpack ages
On ly
Ġreef s
ĠMarg aret
ĠAl cohol
Ġthe or
Ġcomp ly
Ġcop ing
Ġw olf
ĠHou ston
Ġadequ ately
ĠSaf e
Ġcontamin ants
oubted ly
ĠCont ent
ĠMe asure
Ġatt orney
à¤ ¾
Ġhe ll
ĠV acc
ĠEthiop ia
Ġveter ans
ĠRe in
Ġweek end
Ġhuman itarian
Ġd op
Ġvot ed
ĠCommun ications
Ġ9 6
Aug ust
d ist
ĠR on
Ġke en
ĠO K
ĠE R
ĠSqu are
Ġcos mic
Ġshif ted
Ġd orm
Ġle ather
Ġa rose
se a
olit ical
f erence
D ay
ĠB rand
ĠG rowth
le ading
Ġcent ered
Ġappear ing
Ġcon gress
ĠClin ic
Ġviol ation
ĠApp roach
R ed
ES CO
il iary
Ġblood stream
ĠG rad
d ose
There fore
Ġod or
Ġce iling
b in
Ġc um
ol ics
Ġpick ing
Ġcol oring
J uly
S y
c ard
ĠD ocument
Ġconclud es
threat ening
Ġen velop
Ġ7 4
Ġanten na
ĠA round
b oth
acter ial
ĠM C
ĠI R
Ġnon linear
ne x
Ġt ales
Ġanat omy
ous ing
Ġinc ub
Ġalph a
Ġgen re
Ġ iod
Ġlight ning
Ġastr onomy
Ġk et
ĠMan ual
Ġnovel s
ur g
ĠDet erm
Ġth rust
ER E
ĠP un
ign ant
ĠThrough out
ile psy
Ġp ocket
itud inal
Ġtra it
Ġser um
ĠPr ice
u f
Ġlay ing
ox ic
ob i
Ġfram eworks
Ġtest imony
Ġl amp
Ġaster oid
Ġspect acular
ĠI g
Ġfast est
Ġtail ored
Ġd irty
Ġgly c
p a
Ġcr imin
S w
Ġperform ances
RE E
Ġveterin arian
Ġcommerc ially
Ġwal ks
Ġtrans m
Ġhist ories
Will iam
Ġirrit ation
olith ic
Ġsimpl est
Ġbrand s
ed y
Ġb aking
Ġbo om
ric s
ĠAcad emic
im eters
Ġfun gal
Ġassum ing
Ġinform ative
e lect
Ġpost er
De velop
ĠCons ult
Ġclick ing
ĠJ oe
Ġh ollow
od ia
ĠC atal
Ġdeclar ation
Ġsuggest ion
Ġst ating
Ġsh ots
1 10
Ġd ub
ĠP red
Ġcontin ental
Ġcigare ttes
ans k
Ġcomp ressed
r ings
Ġup ward
f und
oll en
Ġcryst all
Ġs ap
Ġoccup ational
in ence
n orm
et ed
Ġeleph ants
Ġge ological
Ġele g
Ġgrocer y
Ġman ually
i w
Ġband width
ĠM ort
it ol
Ġfaith ful
ĠCl inton
b ian
Ġh its
Ġpl ag
Ġimbal ance
ĠE ric
mit t
Ġt ide
Ġ7 3
Ġph yl
Ġher bal
Ġmor ality
Ġn ights
ij ing
ord on
Ġexhib ited
Ġvers es
ĠOver all
ĠPu erto
Ġ iv
Ġadjust ments
Ġsh rubs
ĠR ot
Ġcourt esy
ĠR A
Ġel imination
Ġunder neath
Ġult ra
Ġwhere by
in us
Ġf iscal
Ġbehavi ours
Ġsevent h
Ġref use
over ing
up uncture
Ġme g
ixt y
Ġconc ert
is ol
ĠI BM
ĠP D
ĠAmeric as
Ġt ended
ĠFor um
Ġre lying
ĠC as
Ġlength s
ĠSol omon
ell o
ĠBC E
head ed
Ġdecl are
ĠAd vis
Ġbench marks
N G
ĠH E
p ill
Ġassist ed
requ ency
E duc
Î ¹
us er
ro it
ar o
Ġin expensive
Ġaccount ed
ĠArist otle
Ġcur t
Ġes oph
ĠColumb us
ĠP oor
ĠAl most
us c
Ġadmin ister
Ġdestro ying
Ġconstit utes
ĠM obile
om nia
ĠSt ra
ĠB lu
Ġtal ent
ĠA ware
Ġminor ities
ĠT ob
ĠT ypes
Ġretire ment
Ġserv ants
Ġload ing
ards hip
Ġhol istic
ĠN ight
ĠPub l
ĠM O
Ġcor rosion
Ġat he
Ġoverl ooked
Ġwith stand
Ġst icks
Ġe ll
am an
Ġstress ful
ĠD ry
Ġh urricane
Ġlim itation
ĠL ang
Ġeth anol
Ġprec autions
ĠP ed
Ġadv ise
Ġ 000
hat t
se mble
sc ient
ĠGu inea
Ġtw in
Ġf ut
Ġturb ine
e at
Ġrun off
art ed
Ġdi abetic
icult ural
Ġp ars
m n
ĠF u
Ġgener ative
Ġb ibli
Ġs lic
ĠG ab
Ġmar ry
B R
Ġblock ing
Ġroutine ly
ĠRober ts
Ġu mb
Ġevalu ations
ĠFl ore
Ġpl ots
ĠArab ia
Ġsal ary
Ġ8 2
rate gy
ĠSe attle
Ġport fol
ĠM s
Per haps
199 7
Ġinject ed
m ont
ĠS eg
Ġinvest ed
I H
pl oys
Ġdec k
ĠR ule
Ġp rize
Ġad olescent
se arch
Ġw olves
Ġz o
Ġesc aped
n ational
Ġoverse as
Ã º
w ick
gen cies
ĠApplic ation
ĠCh ron
Ġcount ed
Ġinj ust
ist a
N O
ĠRec ord
Ġl ips
Ġwell ness
ĠTh ank
eng ine
Ġrom antic
Ġconst ell
Ġdeb ates
ĠS ierra
V I
Ġsim ulated
Ġn ests
p ublic
Ġqu it
ĠR ange
Ġaggreg ate
Ġenc oding
Ġauto immune
ĠS L
Ġi P
Ġeru ption
Ġexp ose
ast es
Ġc ables
Ġunf ortunately
Ġqu ar
ĠIce land
che ll
Ġrese mble
Ġatt raction
Ġmark ing
ĠChall enge
Ġest rogen
ĠBen efits
ĠB att
ph y
Ġ19 19
im odal
ĠAt hens
is ive
s ky
ĠAn imals
ĠDe ad
Ġver bs
W H
Ġper me
Ġclim ates
ĠT itle
ur ations
Ġfib re
Ġadv ancing
Ġmal icious
Ġdec entral
Ġvolcan o
ĠEx ample
ere rs
Ġinh ab
d iv
ĠCrit ical
ck ed
ĠT rue
Rel ated
Ġs q
Ġide ology
Ġt ags
ĠMem bers
ĠHe at
Ġtri um
Ġplanet ary
ĠN AT
ĠFin land
Ġen lar
N E
Ġvisual ization
Ġdispl aced
Ġ20 50
ĠF ast
Ġrebell ion
Ġgovern ed
Ġg am
get s
spec ies
Ġsur pass
Ġgu itar
D s
Ã¡ n
M ark
Ġh iding
Ġ7 6
ĠOcc up
Ġfert ile
re r
Ġhost ed
Ġcont est
Ġdef ect
We b
G s
Ġdel icious
Ġher d
ill ary
Down load
ĠObserv atory
or rh
ĠNev ada
ĠCom plete
Ġnew er
ĠHispan ic
ĠCE O
th irds
Ġfl ame
Ġvent ure
Ġfeed s
ĠHop kins
Ġar row
Ġ7 1
Ġrem inder
Ġinstrument al
T op
Ġanticip ated
Ġover night
) -
Ġcol i
Ġ8 4
Ġad mission
ĠR at
Ġterrit orial
Ġcan on
heum at
organ ic
Ġdis ruption
ĠW ould
it o
Ġdepth s
Ġscan ning
Ġcred its
Ġprop het
form ing
Ġcommand ed
ĠDef inition
D esc
ĠMan ufact
% ).
Ġdescript ive
ov irus
Ġsuppl iers
Ġsum m
y g
Ù Ĩ
Ġtra gic
Ġf ox
Ġnest ing
H uman
ĠNep al
Ġdepos it
Ġne urop
ĠC row
Ġf iring
Ġmist aken
Ġcoron ary
Ġd ive
Ġfeat uring
Ġcompl aints
ĠP ent
ĠArgent ina
Ġuter us
re tt
Ġclim bing
Ġroot ed
Ġaqu arium
00 1
Ġcomp rehend
I d
em at
Ġrandom ized
m ap
Ġcomp uls
AS T
Ġg ym
rit ical
ĠTo o
Ġadvoc acy
ust ral
Ġdet er
Ġbo iling
O K
Ġdisplace ment
ĠL iver
ĠN ag
Ġthe ology
Ġclean er
rav iolet
Ġk ills
ĠShe l
Ġincorpor ates
Ġinter section
Ġl ucky
ĠAntar ctica
Ġprompt ed
ĠBelg ium
ec hes
p i
Ġbad ly
Ġsurre nder
Ġbu nd
Ġsecret ary
ĠPro duction
Ġdefin ite
ir ts
Ġment ally
Ġpestic ide
m o
Ġaccount ability
Ġf ake
ĠY e
Ġlik ed
lighten ment
Ġscholars hip
pat ient
Ġbr ushing
ĠA venue
Ġmon uments
Ġrecogn ise
Ġrel ied
Ġreve aling
Ġcannab is
ore st
ay ers
c hem
Ġcorrespond s
z i
Ġbo ot
Ġnever theless
ad ers
ĠTr uth
ĠT ower
Ġpersonal ized
th ink
________ ________
ĠH PV
ĠSt age
ĠDis orders
Ġcar riers
W omen
G M
Ġremain der
Ġmultip ly
pl ants
Ġend less
Ġmis under
Ġcur ves
ĠCom plex
Ġse gregation
ĠDat abase
pro v
Ġball oon
ĠSt ruct
Ġl ag
? )
S uch
Ġlov es
Ġmusic ians
Ġwel ding
Ġfl aw
Ġpo ols
Ġam endment
Ġemphas izes
Ġsoon er
ĠS ah
Ã© s
ĠJ ob
d ata
Ġfl ights
Ġc ite
ĠJuda ism
/ .
ab y
id ency
ĠE u
Ġgar bage
ĠSil ver
Ġcatal og
ot te
ĠR io
Ġn our
Ġ193 3
Ġwant ing
Ġdisturb ance
ĠArchitect ure
b iqu
ĠT un
Ġ3 50
Ġbase ball
Ġde forestation
Ġass im
Ġdon or
Ġre use
ĠM ember
read ing
Ġadop ting
oster one
1 20
ĠEn s
ĠC hem
ĠT ut
ĠEc ology
esp an
Ġoutl ines
low er
Ġun stable
ĠDon ald
Ġpre st
ĠScript ure
ch y
E xt
Ġw are
Ġj un
Ġvacc inated
Ġb ites
Ġun int
ĠPre p
Ġg host
ĠF riends
Ġharm on
Ġcoord inates
Ġkilomet res
ĠApplic ations
Ġmeth yl
Ġclean ed
ĠC ould
ĠL ate
ub ric
ĠGal ile
Ġ16 0
ĠTh or
om ics
ĠArt ificial
ĠW el
ĠProv ince
ĠPal ace
Ġwh it
ĠCommon wealth
in formation
Ġprivile ge
B as
Ġacceler ated
ĠNot es
ay an
Ġcl ause
ĠResp ons
Ġpolit ically
Ġweakness es
if ting
Ġm arc
h o
Ġsqu ee
ĠGall ery
ĠPub lished
eral d
ĠPortug al
Ġdifferent iate
f in
Ġlim estone
ene z
th ree
he im
Ġoverl ap
ograp hers
Ġcommod ity
ĠAct s
Ġbron ze
Ġcomprom ised
w ritten
B rit
Ġex clusion
Ġtable t
ĠD eg
Ġradical s
J ew
ĠS ent
Ġunder graduate
" ;
Ġdel ays
Ġintent ions
Ġconven ience
ĠColl abor
ira cy
Cont in
ren cies
m aker
ĠMalays ia
e er
Ġair port
Ġaccept ing
Ġdisadvant ages
Ġr ated
ĠBr un
Ġhighlight ing
199 0
a ic
ĠM axim
Ġinteract ing
Ġ esp
Ġ9 3
V ol
Ġmanip ulate
Ġintern ationally
Ġsculpt ure
Ġinterpret ations
ambo o
ĠP le
ĠCan al
og ly
Ġsub set
Ġsum mit
Ġtight ly
Ġopp osing
ĠAct ive
Ġfinanc ing
c ience
Ġref lex
Ġen rolled
G R
Ġre nowned
Ġshap ing
Ġ8 3
bl ack
Ġpl ague
b irth
Ġpot s
E c
Ġsmart phone
Oct ober
G iven
Ġin appropriate
Ġviol ations
Ġround ed
Ġproject ion
Ġlif ting
Ġbod ily
Ġweaken ed
Ġtri ple
Ġqu iz
Ġfe ast
ĠProg rams
Ġprov incial
Ġex otic
ĠRec omm
Ġbreast feeding
Ġno body
osex ual
ĠS W
Ġpun ish
Ġdu ct
C ross
Ġt sun
ĠPrinc iples
Ġastronaut s
Ġnutrit ious
m ir
em bers
bo ards
ĠMan ager
Ġlegisl ature
Ġwor m
sc ape
Ġve t
ĠM ercury
U P
Ġjoint ly
p rop
Ġjust ified
h um
Ġjuven ile
ud a
hes s
Ġpray ers
Ġpix el
ĠAppl ied
Ġturb ines
ĠPrinc eton
S chool
ĠM olecular
Ġcoord inated
Ġmar row
ĠY ale
rit er
Ġdef ensive
L ist
Ġa pt
ĠCo ord
Ġvalid ation
d ings
Ġreg ulating
Ġrem n
) ?
Ġt we
F F
Ġch op
ĠDo ctor
Comm un
Ġpass words
at to
Ġac oustic
Ġdam s
Ġgu ilt
ĠRob inson
ĠRel igion
Ġaccompany ing
ĠInstit ution
Ġmagn ific
Ġpen cil
ĠT itan
Ġaud iences
Ġall iance
Ġcharacter ize
c ourse
Ġ193 8
ear ly
Ġansw ering
Ġdifferent iation
Ġpul p
Ġstead ily
Ġ( $
Ġap nea
199 6
ro ads
Ġsc aling
ixt ures
ĠUs ed
Ġto es
hist oric
m el
ĠR ow
Ġfo am
Ġmig rants
Ġf ocal
ĠHar ris
Ġac ne
any on
Ð »
Ġtext books
Ġmus cular
ĠFood s
Ġart illery
ĠDown load
for cing
ias m
Ġsick ness
Ġtow ers
u ce
ĠLet ters
Ġob struct
al ion
Ġemploy ing
Ġcalcul ator
ĠSh are
V A
Ġhost ile
ic us
iv ia
Ġd ip
Ġspread s
Th anks
Ġ7 9
Ġval ves
Ġsqu ares
Â »
Ġlist ing
ĠDisc overy
Ġtomat o
Ġdial ect
ann ah
Ġto ken
S um
f ig
g age
Ġqu arters
H ome
Ġm aj
Ġg ates
T I
ĠInf lu
or ia
ĠA bs
Ġdecor ated
ĠM aj
Ġl iability
Ġgrass es
Ġrepet itive
Ġse aled
lud es
Ġ194 6
Ġev apor
icular ly
Ġrele asing
in cess
ĠArk ansas
ĠResp onse
. [
Ġt u
ĠE ver
ĠU g
Ġrec urrent
ĠMor gan
Ġru ins
Ġident ities
od a
Ã ĥ
Ġinv ari
ut able
ix on
Ġtou ched
ang a
ĠBapt ist
he it
Ġst ochastic
Ġt ense
ĠInstit utes
Ġb ru
Ġsl ides
ĠAll ied
ile m
ĠArt icles
Ġut ilities
Ġmid st
Ġret ina
ĠAnth ony
Ġpropag anda
h u
ĠPh ill
Ġbelong ed
ld er
e ur
Ġcy cling
Ġhar assment
Ġcra cks
Ġfrag ile
Europe an
Ġchromos omes
Ġno isy
Ġdivor ce
am er
Ġmot ors
Ġd ancing
Ġcav ities
Ġped ag
Ġcareg ivers
Ġv ivid
Ġbi ases
Ġintu itive
Ġprompt s
ĠMic hel
Ġh ired
Ġmat ched
Ġm ate
A tt
Ġcorrespond ence
Ġdis l
Ġimp ly
Ġur anium
O H
Å «
Ġplace bo
Ġkn ife
ĠÎ ¼
ĠT u
Ġliqu ids
Ġtoler ate
Ġappar atus
Ġdecomp osition
ĠCal cul
Ġs isters
Ġsent iment
Ġab oard
ĠTra il
Ġbo il
ĠRep orts
ĠD elta
Ġ8 6
ĠM ason
im icro
ress es
Ġemit ted
ang les
Ġsuccess ion
ject s
Ġmod elling
L ong
s ocial
Ġgeneral ized
Ġeru pt
Ġ8 7
ĠF ew
Ġment ions
Ġproport ions
Ġhand ed
ĠP S
Ġdepos ited
Ġpreced ing
ĠUp on
ot ics
ĠIss ues
Ġpol es
Ġm asters
Ġinterf aces
f ires
Ġrecogn izes
Ġpartners hips
ĠPr iv
ĠLe ban
ah o
Ġpron unciation
Ġlov ing
Ġcont ag
Ġpropag ation
c ultural
Ġem ploys
Ġman ure
oun ter
ĠP ier
ple ment
ĠAl t
ĠConst ant
Ġmim ic
Ġsovere ign
Ġreson ance
ĠL en
Ġvari ance
Ġclust ering
Ġb end
ĠPalest inian
ar in
ĠSt rategy
oci ated
Ġthe atre
s um
ĠAl i
ĠSt ew
Ġbutter flies
Ġcollect ively
b ecause
C s
Ġcomment ary
Ġinst ability
Ġproport ional
AL L
ĠVal ue
Sept ember
ĠU l
Ġinstall ing
ĠVien na
ĠB irth
ment ioned
Ġtrans ist
he ads
Ġcor ners
Ġprem ium
ĠL ith
Ġgu est
atur ated
ĠMont ana
Ġj e
Ġchar ter
ĠCon struction
m un
ĠW at
Ġmal ware
Ġparas ite
els h
Ġfl ora
ĠCh ronic
Ġinherit ance
Ġle mon
Ġpron oun
Ġlog ging
? ?
ĠW H
Ġwond ering
Ġ19 12
ĠEn h
Ġd urable
ĠHud son
h ind
ĠG ate
Ġhe d
in ative
Ġdivid ing
ĠC av
Ġcrypt ocur
Ġspons ored
Ġenc rypt
Ġdevelop er
Ġlight weight
Ġgu ests
Ġheav ier
Ġsouth west
ĠBe ijing
Ġnort heast
te es
Ġbi ography
Ġprob able
Ġnorth west
be y
Ġant iqu
ĠS audi
ĠSt ructure
S outh
Ġcart ilage
Ġpe pper
âĢĿ ).
Ġ8 1
Ġadvance ments
spe aking
a ire
Ġpr uning
ĠH D
Ġspr ings
ĠExt ensive
Ġrestrict ion
ĠAgain st
Ġg rief
Ġresil ient
az ines
L ess
Ġlabor atories
Ġremov es
Ġe cc
Ġb id
Ġfast ing
Ġ194 9
Ġserv ant
Ġlock ed
ĠJ osh
IN E
ĠC ris
iot he
Ġmod er
Ġdisc ontin
ĠRus sell
ĠTok yo
ĠCa esar
ĠB ry
Ġcatast rophic
ĠQue bec
Ġan terior
w er
ĠAnd roid
r ill
ĠB uff
as ury
htt ps
Ġequ als
Ġphilos ophers
Ġn u
Ġobser ver
ount ain
Ġmer cy
cont rolled
Ġk ick
Ġcompris ing
Ð º
Ġscholar ly
Aut hor
Ġb ishop
Ġl acks
Ġhon our
ĠNich olas
p ine
Ġdial og
ĠAut o
Ġa il
m ination
Ġconstruct ing
Ġsh aft
ĠD R
Ġar ising
ĠK id
Ġt une
Ġ19 16
Ġoff shore
ĠOrgan ic
Ġdehyd ration
ĠM orm
Ġsystem atically
Ġcoal ition
Ġn aked
Ġfree ze
Ġcyl ind
es ome
ar ious
Ġter r
Ġl as
Ġsupp ose
ad er
Ġancest or
Ġmisc on
Ġany more
N As
Ġd ots
Ġpop ul
t elling
Ġcl ip
Ġcle ans
ĠP ic
Ġp onds
Ġsew age
ĠSh ah
Ġsal iva
is ers
Un like
it i
Ġemb arr
Ġtur tle
Ġsl opes
Ġpursu ing
o i
Ġsurvey ed
h oe
Ġdist ribute
Ġkne es
ĠThom pson
op ause
ke ep
ĠD ream
ĠLeg isl
Ġfil tering
bour ne
um en
Ġby pass
Ġgr inding
Ġtransc ription
ĠHar bor
Ġpil ots
ex per
Ġsym p
ple asant
ĠM ol
ĠCh anges
ĠMin or
level and
ĠCath olics
RO M
Ġt in
ats on
Ġlapt op
Ġconce ived
ĠP ale
In stit
$ ,
Ġch ord
Ġrank ing
ch t
ĠAd vent
Ġam id
ut t
Ġsk etch
Ġex terior
S N
Ġposition ed
in ators
ĠR idge
Ġav iation
ly wood
Ġcent r
er get
Ġdiag rams
T ype
Ġdra gon
Ã £
Ġc emetery
Ġ19 15
p ent
r one
og g
ĠSus an
st ones
Ġt rop
2 50
M et
ĠHigh way
Ġgre ens
P H
Ġearn ings
Ġa ux
ĠL LM
Ġrank ed
ocr ine
Ġemotion ally
Ġconf idential
ĠC anyon
ĠF ah
Ġassum es
g ender
Ġproject ions
c irc
Ġprec urs
Ġreason ably
Ġu biqu
Ġmicrosc opic
ĠGet ting
d ays
Ġb acks
oglob in
Ġe cho
ĠHand book
ĠGe ographic
Ġun ch
Ġsp iral
ĠB eth
ev a
Ġthe ater
Ġpsych iatric
ĠGa ussian
ĠF ortunately
Ġdark er
ĠPr ivate
Ġreject ion
ĠZ one
Ġspec ification
Ġcivil ians
Ġcarbohyd rate
Ġmenstru al
w ere
ĠP TSD
Ġform ulas
Ġinn ocent
ĠWalk er
row se
Ġdes erve
in os
pe ople
Ġcal orie
Ġur ge
Ġhum id
ĠSte ve
Ġmind fulness
Ġn ail
Ġbron ch
ĠA BC
Ġattend ance
Ġembed ding
Ġoxid ation
ary n
Ġtermin ology
Î µ
ĠCr ime
Ġtransl ations
Ġgl oves
Ġengine ered
ĠâĨ Ĵ
Ġre nal
ĠR ole
) (
ĠG ender
Ġstat istically
Ġaud itory
Ġlith ium
Ġth rowing
Ġend emic
Ã¼ r
Ġneighb our
ĠM ir
Ġ9 2
ĠSum mary
Ġan omal
un n
Ġexcite ment
ĠLank a
Ġbal ancing
ĠCh ris
ĠDes ert
Ġsin us
ĠPh ase
Ġappe aling
Ġn m
Ġw ip
Ġtuber culosis
Ġexpect ancy
Ġindirect ly
Ġsl ip
an ical
Ġr ush
Ġsp at
Ġseed lings
ĠM i
ĠK u
Ġsch izophrenia
Ġdisput es
Ġform ulated
Ġo ven
oy d
ĠVis it
Ġdem ol
Ġbl ast
Ġext r
M T
Ġ195 6
amil iar
ĠV eh
Ġex agger
Ġfront ier
Ġv iv
Ġmat hematic
Ġcigare tte
b ad
Ġhierarch ical
Ġaccum ulated
Ġoste oporosis
br ate
Ġglac iers
work ing
oc ard
i ably
Ġ Å
Ġrelax ed
ateg ory
Ġcle ared
o zo
Ġ ..
ĠC ognitive
Ġimmig rant
Ġcoc onut
Ġneg lig
weg ian
ĠB ec
Ġlow ered
ĠSe ven
Ġmain land
ĠE X
Ġpe pt
ĠAn at
Ġinst antly
ĠMo z
ct ory
f ed
Ġco ach
int o
Sym ptoms
Ġenact ed
Ġparent ing
Ġimpl ants
ĠTransport ation
zz le
ĠN A
Ġopp onents
ĠNapole on
Ġple ased
Be ing
Ġb ent
Ġed ible
ĠK er
Ġland mark
Ġnotice able
ĠDemocr ats
ĠSol utions
Ġstr ive
ĠMot or
it ous
Ġ9 4
Ġexpend iture
Ġgl oss
Ġhyd raulic
Ġlif elong
ic ism
Ġman eu
ĠAl low
Ġw and
Ġtra ps
Ġresearch ing
h alf
oc ular
ĠE lementary
last ing
im age
Ġin acc
Ġenjoy ing
ĠNeg ro
Ġam end
st ory
Ġs outheast
y our
Ġmyth ology
Ġrein forced
ĠD A
Ġdr ift
am on
ĠPl ato
ĠG ent
j e
oc hemistry
ara oh
ĠNorm an
Ġsome body
Ġstri ps
Ġquad r
Ġbra ve
ind ex
Ġp m
Ġup grad
Ġund oubtedly
Jan uary
Ġconv ince
Ġstro kes
l as
ithm etic
Ġconver ting
lud ed
ĠSt alin
Ġback ed
Ġauthent ication
ĠGreen land
ĠB R
NA L
Ġaccum ulate
Ġenter prises
Ġinc on
Ġsup reme
A IDS
rop ortion
ad ies
Ġg ospel
ĠK ash
Ġth under
199 5
ĠS ay
Ġco efficient
ri pp
ĠB uck
Ġpath ogen
ĠLiter acy
ĠH erm
am y
ĠGe ological
Ġf ence
Ġembry o
Ġin land
Ġimport s
Ġtechn ically
ĠZ ion
Ġ195 9
ĠIn fect
ĠH ills
ĠSing h
Ġpat ience
Ġesc al
Ġfract ions
ĠMon itoring
ed a
Ġdemonstr ations
Ġsou ls
Ġcred ited
Ġser ial
ĠC rown
Ġgener ators
Ġ193 6
ĠRail road
Ġoptim um
Ġob ey
ĠO ral
ĠVar ious
Ġpop ulated
hy l
ain ted
h ill
B ar
Ġrobot ics
Ġco il
Ġpe aks
Ex ample
Ġfle w
Ġw ore
Ġrefuge e
Ġm ating
ansk rit
Ex per
ĠS ky
Ġmultipl ication
ĠS ad
Ġlif espan
ac cept
Ġgrow ers
ĠMor ris
Ġclub s
Ġprosp ect
ĠFest ival
ĠLa ure
Ġfair ness
Ġhand y
ĠP ick
NN s
ĠAr n
ĠAp ost
O h
Ġredu nd
Ġgr ate
Ġamph ib
Ġneg lected
Ġtrium ph
oth ic
Ġdetrim ental
ĠO wn
ĠC I
ĠP el
Ġd awn
ĠP eters
iv ism
Ġback ward
Ġur ged
ĠFa ith
Ġweak er
ĠDisc uss
Ġswit ches
ĠT ools
Ġtra ils
Ġhous ed
ere r
Ġopp ression
ĠFor ces
ĠInd ependent
Ġhe lic
is ure
ĠAware ness
Ġ193 7
ĠUN ESCO
ĠJ os
Ġsqu ir
Ġse als
Ġcontext ual
Ġlaw su
Ġmerch ant
Ġlog s
Ġ19 11
Ġro pe
ĠProduct s
Ġignor ance
m g
B s
IT Y
Ġtraff icking
De cember
ĠComp rehens
Ġchick ens
.... ....
Ġb ass
els ius
Ġprov es
ĠM oney
Ġout ward
Ġhe red
Ġthe e
Ġbelie ving
Ġasym pt
Ġbutter fly
plic ate
ĠLike wise
ĠE pid
Ġcr us
ĠAl an
rib ing
Ġ19 29
Ġbeet les
Ġconst ipation
Ġbel oved
p ositive
ĠWork ers
def ined
ĠT an
Ġgra pes
Ġpain ter
ĠAP I
ĠEvery thing
osc opy
" ).
trans mit
j u
f requency
ĠBra h
ĠEb ola
ĠH R
Ġfavour ite
Ġrisk y
Ġdet ox
Ġloc om
and al
n ish
Ġlabel ing
Ġfluctu ations
Ġunc ont
Ġincent ive
Ġdiscover ing
Ġin ert
Ġpress ed
g ate
Ġ8 9
cc oli
Ġra pe
Ġfe ared
Ġdisturb ances
ĠClass room
ert ility
il is
ĠClass ification
Ġnon profit
Ġ195 7
ĠS ide
Ġdr astically
ĠAlf red
Ġenthus iasm
Ġfl oss
Ġinvestig ators
Ġl oses
Ġunf air
Ġ ).
$ .
b earing
worm s
Ġ186 1
ac a
c ode
Ġdro ve
Ġorient ed
Ã Ĥ
ort ing
In stead
tern s
Ġarch ives
Ġmonit ors
Ġrecip ient
s olving
T reatment
g rowing
Ġoccup y
ĠLeg al
orth y
v oc
ĠL A
os itions
Ġart work
ert ation
Ġco arse
Ġfertil izers
Ġgen ius
car bon
Ġnan op
Ġcomp rise
l ass
Ġrot ating
N ever
ĠSe qu
Ġopen ly
Ġme ats
âĢ¦ âĢ¦
Ġer ad
Ġrepl ication
ĠSt op
ibl ings
Ġpix els
n osis
Ġo t
Ġarr iving
ĠL yn
Ġh ook
Ġconstra int
e lectric
Ġconver ts
ĠT el
ĠReg ister
c f
Ġen amel
ĠAust in
ĠNav al
E s
Ġj ail
ĠAb d
Ġinv ite
Ġschool ing
ĠP arent
Ġche w
ĠOffic er
Ġdef iciencies
ĠE L
ĠPolit ics
Ġex cerpt
Ġblind ness
Ġgradu ates
S et
c lic
Ġth irst
Ġpro st
Ġparagraph s
Ġgot ten
Ġf ont
ĠN am
Ġun av
Ġcompens ate
ĠP ages
Ġimp ose
Ġbra ck
ĠAlber ta
M ult
Under standing
ĠProg ress
Ġdro ple
Ġflo ors
Wh ite
Ġske leton
D ue
ĠB irds
ĠSer ver
Ġrep ly
Ġunc overed
n c
^ {
Ġ12 5
Ġrecord ings
Ġm arsh
J apan
he tt
Ġimpro per
Ġabol ition
ĠSen ior
ens ation
Ġcon e
Ġab bre
Ġwitness es
Ġhun ters
Ġtravel ling
ĠSo on
Ġgra vel
ĠJoh ann
Ġdeliber ately
ĠG ordon
G reat
at ter
re view
alth ough
ĠJu an
Ġe ch
E st
Ġclar ify
f uel
Ġide als
ĠF ra
Ġpup il
Ġ195 8
ĠV in
Ġcur ved
Ġun pleasant
le ft
Ġc ognition
ew able
be at
Ġh ire
ov al
Ġconqu est
ĠP apers
Ġcap ita
ce phal
Ġsuff ers
ĠT ru
Ġblo oms
m ile
ĠComp et
ĠRe form
ĠH urricane
Ġarch itects
Ġrock y
Ġgl ad
year s
Ġfor um
Ġyear ly
Ġger ms
Ġmon ks
Ġpanc reas
NA SA
Ġparad ox
Ear th
Ġunder going
ĠCh and
ur rence
ĠC auses
ĠMad ison
ĠPl ate
Ġhyd roc
Pub lished
ĠStr ong
ĠAd m
ĠP E
D I
int end
Ġtransform er
ad ata
ĠSal mon
Ġhero es
or o
Ġhem isphere
Ġcapt ures
S te
Ġver t
Ġn od
Ġdown ward
ã Ĥ
ĠAn na
Ġsc roll
âĢ ³
Ġd row
Ġcons erve
t raining
al ks
Ġj ury
l ov
Ġneed les
o S
Ġm ph
ace ae
Ġbless ed
Ġmin ers
Ġf og
t is
Ġ9 1
Ġsc ler
Ġcere bral
in itely
son ian
Ġul cers
Ġw ard
Ġrecre ation
Ġl ubric
ot onin
Ġexpect ation
ĠCong o
Ġintric ate
Ġt elesc
Ï ģ
add le
Ġy esterday
Ġun h
D ig
ax on
ĠT am
Ġwed ding
Ġsign ing
an ning
Ġvis itor
br aska
ĠColon el
Ġwin ner
ĠIdent ify
pl ess
Ġattack ing
Ġris en
ĠI l
ĠIll ust
ra wn
ach ment
ĠE ur
Ġ195 4
Ġpersec ution
Ġdon ated
ĠEngine ers
Ġarch ive
ĠMon te
il ization
Ġcom et
Ġpl aus
Ġb ubble
Ġrecon cil
Ġwar nings
Ġpsych ologist
p ot
Ġ15 00
ĠFour th
Ġc ovenant
Ġinev itably
ĠOr ange
ĠA CT
Ġrepl ied
Ġsuper vis
g el
ĠAut ism
Ġpr ince
urric anes
Ġcorpor ation
Ġutil izes
Ġsim plicity
Ġobser vers
ĠF alls
ĠRe ason
ath s
ĠCy ber
Ġfluores cent
E nd
ĠAfric ans
Ġres in
Ġpolynom ial
Ġath lete
OR E
Ġpanc reat
Ġlaw yers
Ġsem ant
Ġdisp roportion
ĠCamp bell
Ġtend on
Ġmult itude
Ġp ays
Ġprolif eration
ĠTechn ologies
Ġcha os
Ġanaly tics
B re
Ġprint s
ĠRel ated
W est
ĠI M
ĠD anish
N orth
of ten
ĠEr n
ĠC leveland
ĠM t
Ġfrog s
Ï Ħ
c ore
Americ ans
Ġc ivic
ĠE gg
Ġyog urt
Ġco herent
Ġn ons
Ġdetect ors
ĠByz antine
Ġen erget
ĠA th
Ġdom inance
f amily
um ble
ĠW aste
Ġrespond s
Art icle
Ġra ins
Ġmind set
h ole
ĠAnsw er
id ering
ĠB Y
ĠAl ice
Ġmarg ins
Ġair plane
Ġchlor ide
em br
Ġbi opsy
Ġfundament ally
Ġsynt ax
ĠRand om
Ġorgan ised
ĠC yp
Ġ195 5
N ovember
be it
Ġlab s
the ir
Ġchlor ine
Ġreven ues
Ġmon keys
Ġh ipp
Ġup right
Ġg ri
ĠSur gery
ĠBarb ara
Ġaddition ally
ĠIndividual s
oc cer
ĠS R
ĠY ah
Ġmag azines
Ġrel ay
ĠAnton io
Ġroll ed
st ra
Ġguid ing
op ia
ad os
Ġstim ulating
ĠGand hi
Ġsur plus
Ġun rest
Ġru pt
ĠPh oen
ĠE t
fram e
ĠPan el
B O
ns ic
Ġpl um
Â ´
Ġconqu ered
Ġcongest ion
ĠTerrit ory
ĠExper iments
Ġfort une
ĠUs er
part y
Ġbl u
Ġaff ection
ish ops
Ġsub ord
ĠB eck
ĠAtl anta
Ġun e
AC E
Ġin verse
Ġreact ive
abit at
A ccess
ĠK le
Ġoptim ized
ĠBrazil ian
ren heit
Ġbel ly
Ġcomput ed
ĠFl ood
Ġact or
Ġmar ble
Ġbl ades
Ġc ens
se tt
ĠJ ay
Ġcham bers
Ġvoy age
Ġrout ines
hy th
N P
ĠIS O
Ġsuccess or
Ï Ĥ
idel ity
Ġsp iders
Ġ19 13
ð Ł
Ġf ict
Ġse ized
Ġminim izing
ĠIn j
h ad
Ġan th
ĠR oy
Ġloyal ty
ap olis
Ġint imate
Ġsmok ers
ĠG ray
Ġank le
Ġc ake
ĠG R
ĠM ig
Go vern
x x
sp ect
ĠJon athan
Bel ow
over ty
Ġrou ter
C re
ĠW ard
iber ia
---- ----
Ġcult urally
Ġprejud ice
Ġstud io
Ġsuccess ive
br ush
Ġsou p
ĠV ice
ĠB aker
az ed
ĠVe get
Ġn ails
Ġvulner abilities
ĠBeng al
cl er
ort ium
p ox
ĠR ace
Ġmanuscript s
ĠLaw s
Ġbip olar
Mean while
Ġc aves
Ġthe ft
Ġterror ism
ĠF light
out heastern
s ign
Ġhit ting
est ing
ĠBul gar
Ġprosp ective
vironment al
ĠL au
Ġreflect ive
Ġ193 5
Ġnic otine
Ġjournal ists
ĠComput ing
produ ct
Ġrenew ed
ĠC F
Ġopp onent
Ġast on
so ver
Ġgall ery
Ġep ilepsy
Ġra mp
Ġdesk top
cl amation
Ġbirth s
il k
Ġsim ulate
An sw
D M
Ġcon gen
Ġhe x
ĠC over
Ġinhib it
ĠProv ide
Ġunp redict
Ġass ured
ul ence
Ġcelebr ations
Ġcharacter ization
st ant
Ġver ified
Ġdoub led
off s
c hest
ĠM ike
Ġcl ergy
mod ern
Ġf etal
Ġb unch
cess ion
Ġst igma
b as
Ġdro pping
w ave
ĠDet roit
er os
col or
ĠCre ation
Ġdipl om
ĠD ogs
Ġperenn ial
ĠSt yle
art icle
Ġexp osures
Ġult raviolet
pr ints
ĠC elsius
Ġkind ness
Ġper cept
Ġconv inc
ĠEst ab
Ġunderstand s
ĠRec overy
Ġnarr atives
Ġequ ator
V al
Ġceremon ies
ĠInnov ation
ĠD oc
Ġmand ate
Ġout s
ĠCamp aign
d in
Ġc ad
is en
ĠT elescope
pl ates
ac ulture
Ġtransl ates
Ġw rist
roid ism
Ġfrustr ation
Ã ł
ÃŃ a
Or gan
ĠRepublic ans
Ġinit iate
Ġqual ify
Ġmot if
ie ve
com b
Ġmer it
Ġautom obile
Ġdep osition
ĠColl ins
enez uel
ut ers
ĠA ch
Ġg amb
ĠN one
on ian
Ġend urance
lo or
ĠE ight
ĠR ivers
Ġtim eline
ah n
Ġben ign
Ġmicrow ave
in burgh
ĠPre vious
Ġso f
Ġcle ver
ash i
ĠOpp ortun
ĠM anc
ble m
Ġsn acks
our ge
Ġh atch
ĠTe ach
Ġprov ing
Ġele ven
ĠC BD
Further more
Ġm ould
ide press
osa ic
Ġe ighth
ĠThe od
ĠC atherine
Ġkill er
Ġw ives
Ġvent ric
Ġsemic onduct
Ġshr ink
Ġinherent ly
Ġcontrad ict
ĠH ep
ĠC ou
Ġflo at
Ġpossess ed
Ġdisadvant age
Ġphys iology
g rowth
Ġcor rid
om aly
Ġun aware
Un ited
Ġt ires
s er
Ġenlar ged
Pro v
Ġvis ibility
Cont act
Ġmerch ants
Ġear ning
o qu
ĠIm agine
Ġsubsid ies
Ġthreat en
ĠEgypt ians
ĠB iol
ĠTh inking
Ġdisturb ed
Ġce ase
ĠY ang
ĠNor wegian
ĠB E
Ġp ir
nt hetic
ĠAr c
omet ers
Ù Ĳ
ĠProcess ing
Ġst unning
ĠV A
ĠAt mosp
. âĢĶ
Ġprof itable
Ġrec ession
ĠBl og
Ġcompet ence
Ġp ave
ĠB P
Ġref eren
Ph one
ab a
ĠA le
Ġethnic ity
Ġn ar
Ġbless ing
m ass
ĠW a
ĠK ra
Ġph y
Ġto e
Cons ider
Ġactiv ate
Ġrel iance
ĠIncre ased
Ġsed iments
port ant
Ġexplo ited
ĠA part
Ġgovernment al
199 4
d oc
Ġmig rate
Ġjump ing
ĠNaz is
Ġhorm onal
ĠW elsh
Ġad here
Ġrab bit
Ġundert ake
ĠSt ev
Ġportfol io
Ad ditionally
Ġpl ains
U RE
i ates
Ġp s
ing le
ĠElect ronic
Ġcapital ist
Ġstret ched
Ġbicy cle
Ġsupplement ation
pat hetic
Feb ruary
ĠLet ter
Ġ195 3
ĠS ave
Ġresemb les
ĠB rief
Ġche wing
ĠL eft
Ġspr ink
O pen
ĠUS B
g rass
Ġcasual ties
r atory
other mal
S H
ĠCl aud
ero ids
ĠLy me
Ġcab in
iv ial
Ġpig ment
t own
Ġquant ify
v ar
Ġindu ction
Ġsupp ression
ĠA F
ob a
ï ¬
ĠB ear
Ġdev iation
Q U
Ġgener ous
ĠT rees
he ll
ĠB ruce
Ġveter inary
Ġ ____
Ch ina
ĠRet urn
Ġback up
ĠGen etic
gen er
Ġok ay
onge vity
Ġunder w
Ġcand y
ours es
ĠJ enn
Ġdec ides
Ġl bs
Ġimag ined
F our
sell ing
Ġseism ic
au coma
Ġl ava
eff ect
Ġwond ered
Ġdr ones
Ġcit ations
od ium
Ġanch or
Ġdr one
Ġlever aging
ĠA G
Ġd ors
Ġhope fully
Ġc ant
s qu
Ġb atch
ĠD ent
ĠF ine
e le
Prof essor
ĠM B
Ġcab inet
ĠJohn s
Ġiod ine
ĠLib erty
Ġne at
ĠCov id
Ġpurch ases
iz ard
Ġmagnific ent
ocr ates
G erman
ot or
Ġde ar
Ġpo ets
us p
Ġbutt ons
Ġscr ut
ĠM att
Ġeth n
oid al
ul u
Ġstere otypes
Ġamb ient
l ide
Ġv est
Don ald
occ up
d eterm
ĠS ARS
Ġsimpl ified
Ġvit ro
ĠZ oo
Ġbe ams
Ġtrad ers
Ġun equ
Ġ186 5
× Ļ
Ġenhance ment
Ġ9 00
Ġpert urb
Ġdop amine
Ġt icks
cy cle
Ġrepet ition
Ġwhere in
Ġinhab ited
Ġex empt
Ġinfant ry
arc ity
ic idal
b rain
ĠB rian
< /
ĠAss istant
as ian
ic its
ra cle
Ġsh rub
K ing
Ġhost ing
Ġvers atile
Ġs iblings
L ook
ĠB iblical
Ġaer os
ric hed
Ġcontin uity
Ġd ough
Ġcollabor ate
Af ric
Ġrevers ed
ĠPC R
ograph ies
Ġclin ics
ĠS H
Intern ational
ĠQueens land
f s
Ġ3 60
ĠP rad
su ff
rib es
ential s
Ġheter ogeneous
Ġpione er
Ġvic inity
ac ial
Ar ch
ĠSim ply
Ġund es
hist ory
ou ver
Ġw rap
Ġeduc ator
est ial
qu er
Ġvibr ant
Ġcalcul ating
Ġl amps
ate ur
coh olic
Ġmurd ered
Ġref lux
Ġaccess ing
names e
Ġf ierce
p orts
Ġca ut
ĠB MI
ĠGh ana
ri ver
E lect
Ġins omnia
ĠEff ective
Ġout let
Ġwilling ness
eng es
Ġde form
Ġde le
ur i
Ġextract s
Ġdin osaur
ect ar
EE E
Ġde generation
Ġfold er
Ġd ug
Ġex ile
ĠC ole
Ġjournal ist
o op
ĠD a
ĠLab our
Ġjewel ry
k ens
ccess ful
l ishes
ĠVers ion
Ġall ocated
Ġd ressed
Ġclear ing
lic ted
ĠI Q
Ġdom inate
Ġpresc ribe
ĠRail way
ĠKar l
Ġsel dom
Ġactiv ist
ogen ous
ĠDiv ine
at itis
ĠH old
h ou
Ġfort un
ĠHe aven
ĠFah renheit
Ġf ame
Ġcelebr ating
Ġaim ing
Ġpubl isher
id en
Ġcapt ain
Ġsuperior ity
Ġportray ed
ĠV R
Ġsocio economic
ĠMe eting
Ġhe ights
ĠHung ary
E v
er ion
Ġdimin ished
Ġsol uble
Ġcor pus
Ġtransf ers
ococc us
Ġm our
E X
ot ted
Ġgl ut
Ġl one
Ġcreat or
Ġrec alled
Ġlib eration
D ate
Ġlat ency
ĠSing le
IV E
Ġday light
m aster
Ġbom bs
Ġcompet ent
osp ace
ĠDyn asty
Ġ1 15
Ġbus es
Ġp our
M al
ĠDel aware
Ġdepart ure
Å ¡
Ġar ist
g one
Ġd ilem
Ġacqu iring
ĠSu ff
Ġbub bles
Ġquestionna ire
Ġge ology
Ġcompan ions
ra h
ĠC rus
ĠH ob
Ġpack ets
pher d
ĠColomb ia
Ġdecor ative
Ġammon ia
S em
Ġlear nt
Ġhect ares
um ption
Ġuns afe
Ġ186 2
M icro
ĠSc ale
Ġclass ify
Ġalt ar
Ġvalid ated
ĠCom ment
Ġant igen
Ġsk et
Ġemail s
Ġdipl omatic
Ġcaps ule
Ġemb ark
ess ed
P op
Ġpolic ym
Ġones elf
ĠIntern al
ĠCreat ing
Ġfest ivals
Ġmar itime
Ġlif ted
g ro
St ill
Ġtort ure
ĠD ays
Ġoutl ook
imicro bial
Ġbes ide
ac ious
Ġthread s
ĠCon cer
Ġph il
l ad
Ġrab bits
k it
Ġor ph
ĠSt ay
Ġm ills
Ġmiss ile
Ġforecast ing
Ġdecl ines
Int erest
sh ire
Ġsp ur
Ġ195 2
Ġinteg er
Ġpractition er
Ġsearc hes
l ook
Ġsw ift
Ġinc omes
Ġgen ocide
ĠAn throp
ĠNO AA
ĠH arm
ĠM aced
Ġref ere
1 12
Ġarg uing
en ium
Ġc age
Ġfore most
Ġs ulph
Ġhem orrh
Ġin aug
ro v
he ter
i our
hel p
ĠVill age
Ġcou p
ĠOther wise
p ace
Ġunder way
t ail
Ġproceed ings
ĠGre ater
Ġang el
na issance
ott om
le an
Ġstation ary
Ġmen ing
ĠBay esian
Ġapprec iated
Ġstret ches
Ġic onic
Ġprocess ors
S O
Ġnot ions
Ġinv aded
Ġmetall ic
Ġmin isters
Ġwavelength s
Ġin effective
ult an
ĠUk rain
Ġvag inal
ĠWe bs
Ġsubt ract
Ġtext ual
Ġd ull
Ġcont raction
Ġconstra ined
Ġepit hel
Ġinc oming
ĠCar ter
ĠAust rian
Ġcont ing
Â ²
Ġa ph
Ġm ites
ĠLic ense
Ġannounce ment
ig raph
ad ium
Ġupt ake
Ġcertain ty
rim p
Ġprofess ors
Ġâ ĪĴ
mind ed
f illed
Ġp aired
r ong
ĠBern ard
Ġw iring
Ch o
lip se
ig hed
F O
ed ication
Ġinsp iring
L ow
Ã Ĺ
Ġcl osure
Ġv ague
Ġadjust ing
Ġterror ist
ĠAlg orith
Ġs ized
ĠBl oom
Ġeng lish
utri ents
Ġphyl ogen
ĠP and
Ġadd itive
ĠL em
Ġant iv
P I
Ġcommod ities
Ġnurs ery
ĠH orn
Ġad renal
par am
Ġsau ce
ĠEc onomy
ĠAre as
ĠG ran
Ph ot
Ġcr ushed
Ġcompet itors
Ġperf ection
Ad ditional
or able
ac ies
ĠR ules
Ġtransform ing
ĠPit ts
ĠExper ience
Ġfacilit ates
Ġ18 40
ĠFact ors
Ġs ixty
Ġmeas les
ĠBre ast
Ġencl osed
Ġpsych ologists
Ġl av
ap hyl
ript ions
yl um
ĠPre c
u cc
Ġsequ ential
ĠS it
Ġinhib itors
ophy ll
Ġyoung est
Ġav en
ant ing
ĠCo oper
ĠM ade
ĠCat hedral
ĠSt ore
ic ans
Ġl ap
Ġbar rel
p ool
ĠDesc ription
Ġex ceeds
Ġsp ike
Ġpurs ued
Ġham mer
Ġmet ast
Ġair borne
ĠSte el
ĠP ul
ĠPsych ological
Ġst olen
l ived
E ss
Ġmul ch
Ġnews letter
Ġpred isp
ĠLead ership
ĠNe braska
Ġaccount able
Ġsal ts
ĠJ am
ĠImport ant
Ġdig ging
ĠComp ared
Ġn ull
b eth
Ñ ĥ
ĠPediatric s
Ġpresum ably
Ġwas tes
at ar
s ki
Ġske letal
Ġ186 3
ill in
ĠF un
a an
V s
Ġcr ater
Ġprint able
ĠOper ation
âĢ Ĳ
Ġdepend ency
ĠS anskrit
Ġg on
es ters
Ġre velation
own ed
Ġcondition al
ĠR ound
Ġenl arge
p arents
Ġde eds
Ġm erc
Ġtrans itions
ĠOrig in
Ġmonaster y
ĠRo om
Ġrest oring
Ġcrimin als
ch lor
in as
du p
Ġremind s
ĠOff icial
Ġvine gar
Ġspont aneous
Ġreported ly
Ġhypothes es
Ġc ents
Ġnation ally
Ġcapac ities
b b
Ġelectro des
ĠWar ren
Ġdece ased
Ġsw ollen
ĠK ath
if est
estab lished
ĠTrans fer
ĠCorn ell
ĠL as
ra ment
Ġcoh ort
ig ator
ĠSc reen
n els
ĠK az
Ġn atives
rom b
D O
Ġeditor ial
ĠN ik
Ġrep airs
Ġpur ity
Ġre nov
Ġann oy
c ott
Ġc ache
Ġtens ions
W ar
Ġl id
ĠPhot os
Ù ħ
Ġwork out
ri ad
Ġund erest
Ġobst acle
Ġpric ing
Ġinstruct ed
ens on
Ġunf amiliar
z ema
ĠV enezuel
Ġincl ined
ĠRevolution ary
ĠHam ps
Ġad en
ĠRel igious
st op
C ent
Ġlat itude
Ġbright ness
ograph s
Ġcat ar
Ġyour s
ĠGl ass
ĠBab y
ĠR ud
Ġencompass es
Ġinjust ice
Ġdisc ern
Ġsk ip
Ġgu ards
an throp
Ġanalog y
develop ed
at ra
Ġsp are
ĠL ORD
Ġo wing
Ġc roc
ĠGen er
Ġweight ed
P O
Ġvol atile
Ġhar bor
Ġharm less
ĠR ice
Ġplant ations
With in
ĠL ag
Ã ´
Ġ195 1
Ġhe el
Ġtrick y
g as
Ġreview ing
ov ol
ĠHait i
os able
Ġwarm th
iv ari
Ġpump ing
Ġencoun ters
ra its
Ġra y
iam i
Ġle isure
ĠSy mb
Ġ19 21
ĠIsrael ites
M art
ri el
Ġwond ers
I X
Ġprosp ects
ĠSy rian
i Ã³n
Ġrat ings
Ġp ills
ĠG H
Ġtsun ami
Ġtun ing
ĠP erm
Ġspin ning
ic he
N atural
Ġsol ids
s ix
ĠM end
Ġcirc ulating
Ġjust ification
Ġquestion ed
Ġgen ital
ĠW ire
ĠMur ray
Ġl ime
ĠHamps hire
l ore
ortun ate
Ġsusp ension
Ġcomp ares
Ġmin us
Ġpyram id
on el
Ġp ie
Ġcorrect ed
Ġl ord
cl ock
ol uble
rop s
ap le
t ings
Ġt iger
Ġneed ing
Ġg aming
Ġsw ing
ĠNear ly
G C
ĠCanad ians
Ġcum ulative
Ġang els
Ġcer amic
m ount
ess ive
e ks
Ġdesign ation
ĠT ab
r ically
Ġbas al
ĠEd inburgh
ag ic
ĠRog er
Ġprivile ges
D ist
F act
ĠAt hen
Ġin qu
Ġcritic ized
Ġprepar ations
ell ite
ry s
vent h
ĠR u
Ġdisc oura
Ġwra pped
Ġwa ist
Ġpoison ous
l ined
ĠGen eva
Ġneuro transmit
Ġp ains
Ġreg ret
Ġrod ents
Ġb amboo
ĠR ico
Ġcollaps ed
Ġlit eral
ĠW atson
rim inal
Ġec lipse
K E
Ġoffer ings
T ry
Ġcontag ious
Ġs aint
ail ure
ĠY oga
Ġelect oral
Ġinstruct ors
Ġpred icts
Ġv ibration
N F
B E
Ġmuc us
Ġanaly se
ĠC ow
ah l
te chn
Ġcondem ned
ĠExper iment
e a
Ġg rie
Ġul cer
Ġst ool
ĠInst ruction
ĠFlore nce
Ġintrig uing
i per
Ġmodel ed
Ġcons cience
ĠSur v
ĠS ize
au er
ĠUg anda
izz iness
Ġdev ised
ant i
Ġmot ions
Ġgrand father
ĠInd o
Ġposition ing
Ġeight eenth
Ġgradu ated
In formation
ĠL inks
Dav id
Ġinstit ute
T ypes
ĠK enn
Ã£ o
ĠN ar
Ġgrat itude
ĠS AT
Ġbl oss
Ġbi ologists
Ġcav alry
Ġcon ventions
iv ores
Ġpast ure
ĠD ial
ĠMar ie
Ġt iles
Ġlength y
á ¸
al ph
sh ine
Ġsymmet ry
Ġdisc onn
Ġcommit ments
ĠM aur
ĠVol unt
o ar
Ġe lic
ĠGreg ory
Ġmath s
Ġg amma
Ġseaf ood
Ġfav ored
Ġacc red
ĠInterest ingly
ex isting
Ġfol lic
Ġch i
Ġtooth p
u ating
Ġinn ate
Ġfun eral
Ġopio id
ip al
Ġo vere
bet ween
Ġclim atic
ke e
Ġdig its
abil istic
ĠR L
IC E
Ġseiz ure
al am
Ġconsec utive
ĠT anz
it ations
K S
ĠCl ar
Ġdon ors
Ġte asp
Ġpassion ate
Ġembry os
ĠC ool
Ġrout ing
Ġlip id
ik ipedia
Ġn ets
L ondon
Ġbath room
ir i
Ġdep icts
ur ved
cont in
t uning
ĠN um
Ġisol ate
eng ue
D em
Ġregen eration
ri k
Ġrec k
Ġphot osynthesis
Ġinfluen cing
c ounter
W atch
nd s
ĠReg iment
ĠHor se
Ġground ed
Ġeng ra
Ġsh out
bl ood
Ġnot eb
N ET
Ġbelie vers
ĠEth ics
Ġcris es
Ġsecre ts
Ġinf ilt
re ts
ĠEx change
ĠPop ular
Ġsem ester
Ġwh oles
ok en
ĠCost a
ass ociated
Ġasym met
Ġdel ivers
Ġuse less
C ount
Ġ193 4
Ġr idge
Ġnarr ator
in av
ĠRef uge
Ġev ap
Ġdiff ering
ĠH ubble
d el
os ke
Ġle ap
Ġdef icits
Ġcal ibration
Ġreg iment
ĠV o
Ġtelesc opes
As k
x ia
Ġvig orous
Ġf etus
Ġcolon ists
elt ic
Ġval leys
D T
Ġle thal
t able
Ġcater pill
ĠJ our
ĠK an
de v
ĠQu arter
we b
Ġrec omb
can cer
ĠMe aning
ĠHol land
ĠM T
b ach
ĠL l
Ġnow here
Ġrept iles
Ġdon ation
ĠN othing
Ġproclaim ed
Ġfil t
ro f
Ġcrow ded
Ġcommun ist
op rote
Ġst arch
Ġlux ury
Gl obal
Ġadd ict
Ġsmart phones
ĠExp ress
ĠStrateg ies
ĠVerm ont
Ġ19 22
bi ology
Ġprev ailing
c ium
es us
ĠR S
ul ators
ĠM ut
ud al
ĠD in
Ġcous in
Ġill usion
ĠL ooking
Ġcon volutional
con duct
Ġeven ly
ĠCl ay
Ġmotiv ate
Ø ±
S ah
Ġred d
Ġp ulses
Ġst up
CD C
ĠN umbers
Ġgroup ed
Ġforb idden
Ġ18 30
anc he
Ġplant ation
U ST
Ġsl aughter
co al
and o
Ġov arian
Ġmush rooms
ĠGo als
ĠÂ §
Ġcan opy
ĠF ern
A nal
g ia
199 3
eb ra
Ġ190 8
Ġstat ues
ĠDub lin
Ġphosph ate
Ġthere after
ate mal
Ġexplos ive
Ġpot tery
ĠC ities
Ġsc arcity
Ġbre w
Ġs aves
Ġover th
Ġfor age
Ġgif ted
ĠL ack
D irect
ĠG IS
Ġsocial ist
ĠClass ical
ĠProgram ming
Ġaccommod ation
Ġorb ital
Ġm ars
Ġsun ny
clus ive
ĠViet namese
Ġoverwhel med
ĠSt ories
Ġpersu asive
Ġanalys ed
Ġschedul ing
Ġdi ary
Ġa wards
Ġconve x
Ġjud ged
ĠN ick
ĠAr g
ĠJ ama
ĠH C
hatt an
Ġreal ities
ĠRepresent atives
Ġreact ors
un ed
an us
en z
Ġ190 5
anc ouver
Ġg rip
Ġconf erences
govern mental
Ġconfig urations
Ġille g
Ġn aming
s a
ar ound
Ġg em
om ething
Ġpo orer
Ġintrodu ctory
ah a
Ġp agan
uss ia
Ġap artment
Ġdec ent
ĠSc and
Ġmar vel
ĠA pr
Ġch ol
in ctions
ĠOver view
Ġfeas ibility
Ġsupposed ly
ĠT amil
B i
st art
Ġresur rection
R ad
m ain
Ġacad emics
u art
ĠM E
Ġt ricks
ĠPublic ations
Ġremind ed
Ġm ax
ĠAssoci ate
Ġlob by
ĠCh amp
Ġstiff ness
Ġestab lishes
Ġout lets
Ġcontin ents
Ġen vision
Ġstick y
ill o
199 2
Ġsuper f
ver b
her ical
Ġrese t
Ġatt ained
c ra
Ġag rees
umb ing
Ġdispar ities
ĠOper ations
Post ed
Ġinterpre ting
sm all
Ġp ockets
Ġt idal
Ġcere al
il ated
ĠChurch ill
S QL
ĠCons umer
Ġinject ions
ĠP in
Ġapp rent
Ġsuccess es
ĠE uro
Ġrecy cle
Ġpenet rate
Ġen forced
Ġcentral ized
pl ain
Ġmag ical
ass ed
Ġsie ge
Ġcast ing
ĠN H
Ġint end
With out
ĠN ormal
uls ive
com ed
In cre
Ġgo ats
Ġk its
ĠV III
ĠContin ue
Ġst ance
ject ion
od ic
l iness
ĠDevelop ing
ĠJ ere
Ġrect angular
Ġcr an
Ġsh ipped
Ġfulf illed
ĠSen ator
ĠCam er
Ġinequ alities
Ġco oper
ĠAb use
l ooking
oc key
ĠDO I
ĠBul let
ĠSmith sonian
Ġclin icians
Ġdos age
Ġsy rup
A ng
ĠPar ad
Ġsand y
Ġman ages
ĠK am
Ġcoll agen
iv an
ar us
Ġreg imes
IL L
ies el
ai ro
th alm
ĠSouth west
b ase
ĠGuard ian
Ġremark ably
ĠF R
Ġsuscept ibility
Ġl ions
Ġm aker
Ġrhet oric
ĠL ock
odyn amic
ĠW et
resp ons
a a
ĠS ugar
Ġnow adays
Ġher pes
ĠBar n
Ġscient ifically
Ġorb its
Ġswit ched
Ġperiod ically
col ored
rop ract
ĠZ ero
d ale
Ġfa ults
Ġ10 5
eal ous
Ø§ ÙĦ
Ġvers a
Ġlove ly
Ġwar n
Ġ193 2
Ġh ast
ly cer
le en
ĠFl ash
ĠBre ak
ĠAd ult
Ġo y
ec d
ĠC ort
Ġfl ip
1 000
Ġlandf ill
Ġ 00
Ġn ectar
Ġcur ric
im on
Ġg olf
Ġtrad em
Ġt ours
gen ic
or f
Ġrac ist
Stud ies
Ġfl ock
ĠV II
ĠR ate
Ġimp ressed
Ġarchae ologists
Ġbound ed
c ards
Ġcompl aint
ĠHum ans
ĠAtl as
ĠMorm on
Ġtr an
Ġred ist
ell s
Ġtext ile
fall s
Ġestim ating
ĠMel bourne
it ating
Ġgrate ful
Ġre per
ĠR O
ĠS ed
rop he
Ġj elly
at able
L D
ĠC auc
Ġpred ator
Christ ian
g i
Ġel ong
Ġstrengthen ed
ipp er
Ġhat red
Ġanat om
ĠT ang
Ġimp art
Ġavoid ance
Ġastronom ical
ĠJosh ua
Ġac et
al is
Ġembra ced
Ġcatch ing
__ _
Ġdisc rep
Ġeconom ists
Ġenjoy able
Ġra cing
Ġvir gin
ĠAra bs
Ġsen iors
Ġoun ces
Ġser otonin
Ġc asc
neg ative
en er
Ã© e
Ġbe an
Ġsh oe
Ġ186 4
all as
ĠCh art
ĠS ources
Ġref ract
Ġsu ng
Ġsun screen
Ġquick er
sens itive
Ġdownt own
i ots
ĠPat ri
Ġfer mentation
ĠÂ µ
Ġover load
Ġar ithmetic
ony ms
Ġ _
Ġcrow ds
Ġfacilit ating
Ġreal ization
pl aces
Ġcountry side
inc re
Ġr ounds
R ich
Ġsepar ating
qu et
Ġarsen ic
Ġd iving
Ġtemper ate
ĠAtt ention
à¤ °
ĠAssoci ated
Ġimpl ied
Ġenerg ies
ĠI F
Ġcontem pl
Ġenerget ic
ĠGe ography
AS E
ĠWorkshe ets
Ġancest ry
à ®
Ġstain less
Ġcrit erion
g om
ol o
ĠD ow
k ill
c lick
Ġfa una
More over
ĠManc hester
ĠSt re
ĠMay a
Ġl ent
ĠD iversity
ĠN T
Ġmal nutrition
T em
Ġpredict able
Ġbenef ic
hib ition
Ġmat rices
Ġprem ises
r il
cept ive
Sm ith
in qu
Ġt ones
Ġcar rots
Ġbud s
ia e
W HO
Ġgen eal
Ġadministr ator
Ġeduc ating
ĠTh reat
im ates
Ġto ss
Ġan nex
Over all
ĠH imal
p end
ĠPl ains
- ,
ĠParticip ants
9 00
Ġsched ules
ĠScient ist
Ġan onymous
Ġind ef
Ġm oss
ĠJud ge
ans om
St and
Ġprison er
Ġl ongevity
ĠNo ah
Ġmis leading
Ġreplic ate
Ġbe ads
Ġcontribut ors
B P
ee k
Ġpod cast
ĠDyn amic
Ġcul min
ĠSh an
ĠM ine
Ġsal ad
Ġbre ach
Ġhum ble
urn al
ĠPress ure
Ġbu il
ĠF el
ĠT ol
Ġmeant ime
Ġconv iction
ĠJ oy
sc he
Ġelectro de
ic ated
Ġlocal ization
Ġsp ores
ass ing
ĠB iod
Ġlocal ized
arm ed
Ġel bow
roll er
ĠAc id
Ġair way
ĠP ad
ĠEss ays
ĠCham ber
Ġthir teen
Ġrespons ive
im mer
ox y
ĠC emetery
ĠGen etics
Ġrecip roc
J ames
Ġpe at
ĠT rad
Ġden ial
Ġunf ortunate
ĠL ect
n uts
à ¦
ĠM is
Ġdesc ended
Ġwar riors
ĠD I
ĠA x
Ġspe eches
O ld
Ġcra zy
ops is
ĠTr inity
Ġvis c
Ġphysic ist
Ġresearc hed
Ġexpon ential
Ġco hes
Ġl am
Pres ident
T ext
Ġaer obic
Ġant idepress
het ical
Ġdeliber ate
ĠW oman
Ġven om
ĠChild hood
Ġstrugg led
Y S
Ġcul p
us able
Ġt el
ĠTra ff
Ġex h
Ġdeterior ation
Ġbar ley
Ġinterconn ected
op ot
Ġimm ort
Ġrep ository
Ġout reach
s ac
ĠR osen
Ġom n
Ġmult id
Ġcompos er
Ġbr ass
L ab
Ġle aks
ĠT es
r ational
ĠConfed er
Ġpath ology
Ġdismiss ed
Ġexam inations
Ġsusp ic
Ġlong itudinal
ĠD NS
ĠId aho
Ġscal p
aw ning
ĠD iam
Ġam ple
Ġret rieved
Ġtravel ers
d et
orn s
ĠG I
ĠRe ich
Ġshort ages
Ġban ana
ĠDr ive
ĠPear l
ĠInf antry
id ate
Ġto kens
Ġweigh ing
ustain ability
Ġmir rors
Ġconsult ant
Ġdisse min
ur ry
Ed it
aur us
ab e
ah u
ĠGra ham
ĠK l
ows ki
Ġend uring
Ġentreprene ur
se ver
Ġprop osition
Ġdolph ins
ĠNon etheless
ne red
ĠV iolence
ge on
ĠSte in
M uch
Ġan esthesia
ĠC el
Ġhum or
W ash
G I
and y
Ġcell ul
ĠMor oc
A ustral
ab olic
ĠK el
en ers
ĠR T
ĠRich mond
Ġroof s
Ġl ined
Ġwh olly
Ġconc ise
Ġ190 7
Ġquestion ing
S al
Ġdepr ivation
ĠLeban on
oun cing
Ġcit rus
ĠThanks giving
Ġacc ent
ĠN ut
M aking
Ġp ic
ĠCitiz ens
ĠSt orm
Ġgu y
Ġbehaviour al
Ġbur nt
ĠMed ieval
Ġc uis
Ġp ier
Ġform ations
cons uming
Ġform ulate
Ġfin est
ol ism
Ġl uc
ĠShe et
ub a
ĠR ou
Ġma ize
Ġfl ank
ĠP ositive
Ġalkal ine
ĠC ant
Ġsle e
Ġw ished
ĠChar ter
Ex amples
Ġs aints
Ġdec isive
Ġun seen
ĠCont ents
Ġdist ortion
Ġsacrific es
t ec
bl ock
Ġjud gments
oura ble
ĠW ide
ord ered
angu ages
Ġd read
ugg ing
ĠCris is
Ġgra pe
Ġinc ap
ĠG A
ĠM iami
ĠK os
Ġbar rels
Ġm apped
Ġ19 25
Ġtravel led
Ġsanct uary
i oma
Ġcross es
1 30
Th ank
at um
Ġsub mission
ĠLim ited
Mod ern
Ġey el
um atic
Ġtherap ists
Ġc ured
Ġprotect ions
Ġmig raine
ĠM ust
Ġcons on
Ġregul ates
Ġprogress es
ĠIran ian
Ġco res
Ġstimul ates
Ġloc als
Ġsexual ity
ĠAss y
ver bs
ĠFam ilies
P ort
og an
o j
Ġass ay
Ġmod alities
ĠB ranch
anc ers
Ġwet land
Ġp ins
S earch
Ġmed i
Ġmorph ology
Ġv oid
Ġl amb
c d
Ġhand les
Ġsec uring
Current ly
Ġst ub
Ġmicrosc opy
f iction
Ġthe ological
gen e
Ġaltern ating
Ġconstell ation
Ġfun ny
Cl imate
A ir
ĠH us
sp ot
ĠBe at
ĠJud ah
Ġreward ing
Ġbi ologist
Pro t
ĠMont real
Ġp df
Ġsimultane ous
Ġrepe ating
ould er
Ġexceed ed
Ġre ception
U ntil
Ġlight ly
cent ered
Ġinh al
Ġtop ical
Ġbrut al
Ġfam ine
ĠE sc
Ġcor ps
Ġadd itives
Ġunpredict able
Ġd edication
Ġce ased
Ġwas ted
Ġvolcan oes
Ġ å
abb ath
Ġb ricks
ĠK elly
Ġshe er
ab ad
Ġall oy
Ġcapt ivity
Ġtal ents
ĠC her
t imes
New s
Ġautom otive
eg al
d oms
p resent
Ġafter math
ĠMan hattan
Ġtest osterone
il ia
G L
Ġdev otion
Ġtruth s
ĠO t
Ġr heumat
Ġoxid ative
Ä ±
" ),
ĠS ure
Ġchair man
in ion
âĢ¦ âĢĿ
Ġhun ter
ĠPro tein
Ġnational ism
aus al
Ġd ome
Ġha w
Ġsu its
Ġar ter
ĠWh atever
Ġenjoy ment
V itamin
Ġinval uable
Ġb rit
Ġimp ulse
Ġcertific ates
Ġorder ing
F ollow
Ġit er
ĠDec ision
Ġsh ores
ĠRem ove
bor ough
Ġadapt ing
ĠK il
Ġbro ccoli
ĠQuant um
Ġover ly
Ġsubmar ine
ĠS old
ce ived
Ġj unction
ĠMay o
Ġmethod ologies
O x
Ġk iss
Ġant agon
ĠPro ced
R F
Ġbuil dup
ill us
Ġed s
Ġb ilingual
ĠB us
etw ork
I ES
Ġcon gregation
Ġathlet ic
Ġcop ied
Ġra v
ĠZh ang
Ġconvinc ing
uc ing
Ġneut r
Ġhered itary
Ġev id
Ġ190 6
Ù Ĭ
ĠDom ain
ĠHawai ian
Ġback yard
Ġprox y
Ġdiss ertation
Ġtheore m
R ob
est on
C M
Ġrem arks
Ġdepr ived
Id ent
iss a
L ooking
ĠSt reng
Ġne on
ĠColon ial
Ġtw ist
Ġins isted
Ġswe pt
ĠÂ «
at ility
ĠGu atemal
af ety
ĠG ast
ĠG E
ĠExper ts
Ġ20 23
ĠD M
ĠQu ick
Ġw icked
Ġvisual ize
ĠA ld
Ġcongen ital
Ġh urricanes
Ġf ighter
b uilt
Ġcataly st
ĠR uth
Ġunique ly
Ġren amed
Ġend orse
ĠAd ults
du ino
l ier
Ġwel comed
Ġcort isol
J oin
gg ing
ĠKash mir
Ġaccident ally
ĠPort land
Ġt astes
Ġj unk
Ġfor k
on ium
Ġexch anges
Re view
Ġregul ators
ĠF ou
ruct ose
Ġ193 1
× ķ
Ġb other
In c
Ġm int
ĠKnow ing
Ġste al
ĠSp rings
Ġtheore tically
Ġun ve
b ishop
R ober
Ġtra cing
Ġplaus ible
ĠL ud
Ġinver te
Ġundert aking
n atal
199 1
Ġdisturb ing
ĠIn side
ĠC hes
worth y
Ġoff line
V M
l ated
Ġ19 28
Ġh alt
Ġpseud o
Ġmod ular
Ġt ennis
Ġbe verage
Ġpolicym akers
ĠE asy
ĠWy oming
Ġ190 1
Ġconf irms
ĠZ ika
ĠAl ban
Ġeleg ant
ed e
eff ic
Ġbomb ing
Ġexp osing
Ġprophe ts
r t
Ġtw ins
ab i
otyp ing
Ġspok es
process ing
â Ĺ
ĠX ML
ĠN ord
Ġhall uc
Ġgu ys
les i
ĠHar per
W ind
Ġblog s
Ġres ide
Ġcan vas
com mer
Ġalarm ing
ĠM aint
ĠCompan ies
Ġnick el
Ġcolle ague
ow ers
ĠV ancouver
stand ard
Ġgl ance
Ġadolesc ence
G H
Ġwater ways
irm ingham
ĠH alf
Ġconfirm ation
ane ously
ig g
Ġtrack ed
v ings
Ġgen omic
Ġarr ives
Ġc iting
f ocus
Ġun limited
Ġp ork
Ġintest ines
ad ron
Ġremember ing
ĠRec ognition
eli ac
Ġj azz
Ġst ip
with out
ĠContin ental
Ġresp ects
ed ar
l ib
Through out
aus ing
Qu estion
Ġfilt ration
Ġf ishes
ĠÃ ¢
Ġslow ing
h ored
Ġpre historic
Ġhel met
Ġp ads
Ġline age
U K
Ġsh ades
ron ics
ĠEv ans
Ġinter disciplinary
Ġinvent or
Ġlib ert
produ cts
Ġaug mented
oll ar
-- -
Ġcol der
f eld
Ġsam pled
Th ink
Ġbasket ball
Ġbra ke
Ġtang ible
ĠFl ag
ĠSecond ary
j ar
Ġaw aken
UC N
Ġsc rub
ĠEx cell
ĠN it
Ġve gg
Ġâ ī
gom ery
Ġ19 24
Ġbr ig
roll ing
ĠHealth care
Ġtyp ing
Ġad s
Ġblood y
Ġmight y
Ġemer gencies
oar thritis
Ġr anged
Ġsp ices
Ġreservoir s
1 18
Ġpro se
Ġde gen
Ġubiqu itous
Ġdiam onds
Ġac upuncture
Ġail ments
ĠM amm
Ġrot ate
Ġmass age
ĠElect rical
Ġsc aff
Ġh int
ent ary
l ocal
Ġview er
ĠHar rison
Ġe ats
ĠR ural
Ġthink ers
U E
im um
lav ed
ĠIn vent
Ġconqu er
V er
Ġmake up
Ġdirect ors
ell i
Ġbacter ium
m und
Ġoccup ations
Ġsusp icious
ĠN umer
Co V
Ġshut tle
Ġcontract ed
Ġintention ally
Ġbuck et
Ġc uc
? âĢĻ
ĠM ining
Ġobsc ure
ĠR s
âĢĿ ),
Ġun even
e ast
ĠAb stract
ĠVen ice
ĠMit chell
ow l
Ġb ust
Ġbond ing
up us
Ġint olerance
ĠState ment
Ġne u
ro aches
Ġpenet ration
effic ients
Ġd uck
ĠI CT
e very
Ġdisplay ing
Des ign
Ġc in
ovol ta
Ġdecentral ized
Ġcan als
Ġf ighters
Ġcy an
Ġ19 23
Ġexclud e
deg ree
ot er
ab us
Ġup wards
n an
Ġb ored
Ġintern ally
Ġdisc arded
produ cing
cont aining
ĠD est
ze k
X X
ĠS ic
ari us
ĠW ag
Ġab rupt
rim ination
Ġb aked
Ġevent ual
Ġcoll isions
ĠTop ics
Ġconf er
ĠF uk
Ġ1 12
Ġcontribut or
ĠIns urance
f ields
Ġb oss
ĠAdm iral
Ġbi ased
Ġopt ional
ass ador
ĠAb u
Ġbar g
um ed
Y ear
ĠUlt imately
Ġinter mitt
aff e
ĠTibet an
r ines
comput er
ĠM aterial
Ġcivil izations
Ġmy el
Ġtax p
Ġgen omes
Ġt ribut
Sh are
re ason
Ġemer ges
ens ions
m any
ĠL ore
Ġwors en
Ġvig il
ars on
Ġlegit im
ĠNot ice
Ġc ath
W R
ris oned
g rown
Ġwor sh
Ġcel estial
P ress
ĠV oice
ĠDis ney
Ġang ular
Ġcommun al
ĠB ald
Ġal oud
ĠA id
Ġrecruit ment
esthet ics
ĠSign s
Ġar rays
Ġ190 9
Ġshar ply
G P
Ġf aint
ĠHor iz
inn itus
l ay
Ġconsult ing
Ġun expl
ag ent
struct ured
Ġ1 11
Ġmas cul
ĠP olar
Ġcol oured
Ġborrow ed
Ġimp rison
le e
ĠV it
Ġmar riages
Ġbu zz
m ium
Ġg ad
Ġspec ulation
ĠH ur
Ġrecru ited
rop ic
ace a
ĠThe ore
Ġl b
Ġtrou t
opot am
Ġvac ation
ĠW aters
Ġpl ed
ĠF inal
I ts
Ġfinanc ially
ĠA LL
ĠM om
Ġind ul
Ġdec imal
Ġhair s
gu ided
Ġinter change
ĠR w
Ġsu ite
ĠIde as
Su per
Ġinterview ed
Ġoptim istic
ren ces
Ġresid ue
ĠL ex
ĠInter ior
ĠG em
Ġtax ation
l ate
in se
L ead
Ġso res
Ġleak age
Ġ' '
Ġforecast s
Ġsub mer
ĠDist ribution
Ġmet ropolitan
ĠP regn
ĠEx isting
Ġcoc aine
Ġleg ends
Ġfin ishing
Ġvirt ues
Ġfurn ace
ĠK ir
ĠTo xic
ĠPract ices
Ġprof iciency
Ġconc urrent
Ġmen opause
> >
Ġspecial ty
o ise
Ġb il
our t
n ik
ĠSh aw
Ġveget arian
Ġconv icted
Ġnumb ered
ĠH S
ĠRedu ce
Ġscal able
Ġexperiment ation
it ism
Ġspin ach
i osis
ĠB ou
ĠB orn
Ġret aining
R ev
Ġsof ten
k ers
ĠEnd angered
Ġpel vic
Ġtreat ies
ĠBut ter
Ġpr inters
Ġlack ed
Ġhe ir
iz a
ĠC roat
ĠB L
st ar
Ġent ropy
Ġdesper ate
ĠW es
oph ys
B esides
osc ope
Ġrecover ing
Ġst yl
y cle
Ġbi ochemical
ĠGen e
ĠCub an
Ġpossess es
Ġexcell ence
ĠN iger
sor iasis
Ġbe ats
Ġdrople ts
Ġsc oring
Ġmitochond rial
hav ior
ĠSte ven
Ġob edience
Ġdownload ed
Ġpro ceeds
in ians
ĠL ibr
ĠM aps
ĠUnder stand
Ġru in
Ġhyd rox
ĠStat us
Ġour s
10 1
P al
P aul
Ġfabric s
ĠCh ick
ĠV i
Ġun related
em porary
ll a
ĠRuss ians
Brit ish
Ġfell ows
ĠC ondition
ĠInteg rated
r ators
Ġab norm
Ġpo orest
Answ er
acter ia
ed ical
Ind ia
Ġtox in
M ac
Ġcolon ization
Ġyield ed
Ġfrustr ated
b us
ĠA chie
Ġins cription
Ġres ume
ĠF itz
Ġthere of
Ġpiv otal
Ġmind ful
s ervice
ĠSpec ific
ĠNe ither
ĠL DL
in is
Sh ort
n amed
ĠProject s
ĠTurn er
Ġcough ing
ĠCon text
ĠCy cle
Ġs occer
Ġtun nels
AN T
Ġbeet le
Ġtun ed
ura bility
c urrent
inn amon
Ġdisin fect
Ġreluct ant
Ġe agle
ĠLie utenant
Ġsh rimp
ĠPrad esh
Ġt ribute
ster dam
in v
Ġmy riad
m orph
iqu id
Ġtransform ations
Ġbank rupt
Ġw art
Ġpen insula
Ġan omaly
ung le
Ġb ile
Ġrec ount
Ġexhaust ed
ĠSp eed
Ġs ailed
ĠVal ent
N umber
ĠM W
Ġen semble
Ġd izziness
ĠY OU
Ġend ure
D et
Ġcapt ive
f a
am as
Ġsc ary
Ġincons istent
ĠEx cess
J esus
ĠPitts burgh
Ġpean ut
ĠR oll
Ġl od
gra ined
l ength
Ġm u
op us
ro cess
Ġhome owners
Ġt enth
ĠPsych iatry
ĠP ole
ĠV ent
Ġcorrel ations
Ġhack ers
amm ed
ĠE ra
Ġ4 50
Ġcal f
erg ic
ĠArch ive
l it
Ġbo iler
H y
or por
qu in
c row
so on
ĠU T
ang led
os lav
S ection
Ġtrans ient
ac o
ĠAS D
ĠL ane
Ù Ĵ
ĠG ill
Ġinterp ersonal
Ġback bone
am ph
ĠK rish
ĠMat ter
essor i
Ġg i
Ġasc ertain
Ġrefriger ator
ĠH end
imp se
Ġal tering
Ġbiom edical
Ġexpress es
ĠWh ole
e val
int ensive
der ived
Ġwork flow
Ġcard board
Ġdon ations
ã ĥ
Ġpe ppers
ĠD VD
Ġsp ends
Ġsatisf ying
ĠM ak
Ġab used
Ġun supervised
ĠT ropical
Ex p
ĠMess iah
Ġse aw
ĠC eltic
ir atory
ĠOl iver
ĠS U
OR T
Ġb achelor
Ġpersist ence
p aper
On line
Ġle tt
ĠEsp ecially
rit ers
ĠCor inth
lu ent
Ġst aple
Ġeld ers
Ġancest ral
EC D
Ġpat ents
Ġanticip ate
D ifferent
R ight
ĠAtmosp heric
Ġprogress ively
Ġbattle field
ĠCell s
Ġleaf y
Ġrest s
Ġcategor ized
I B
Ã ª
Ð ²
ĠCond itions
Ġnoun s
U lt
Ġf al
l ia
Ġsp o
o ft
ĠBe aut
ĠH ousing
ĠN ash
Ġnit rate
Ġview point
Ġon ions
ÃŃ s
Ġem ig
as se
Ġl ump
id ian
Ġup stream
F rench
Ġdef ending
if ers
Ġha ul
udd y
ĠDe al
M RI
Ġarg u
Ġhob by
Â ±
Ġsc ored
ĠW ol
ed es
inf ected
Ġcar pet
ĠF inding
ĠA V
f i
eg rad
Ġcr ashes
Ġadapt ations
ĠS ie
ĠTow ards
ĠH app
Ġ Ä
Ġannot ated
ĠPl ans
Ġd imensional
ost ing
rell a
Ġc aste
Ġesoph agus
Ġpuzz les
Ġav oc
ourge ois
Se lect
Ġwin ters
Ġagg rav
Ġfore stry
Ġsemant ics
Ġrhyth ms
Ġthr iving
Ġsp ear
Ġdec oding
Ġlaun ching
Ġaw a
Ġg room
Ġevap oration
ĠF resh
ro ot
Ġ19 27
ĠTransform er
ĠR ing
ĠR AM
ĠCount ries
Ġunus ually
am orph
ograph ics
ann ers
ĠEff icient
Ġvow el
Ġmira cle
mat ical
Ġalter ations
ĠC V
Sah aran
Ġgest ures
ig ers
Ġmart ial
Ġbet ray
an mar
Ġfl ush
ust omed
Ġto ps
w atch
Ġplay ground
Ġmon oxide
Ġchap el
Ġsol itary
Ġgradu ation
ĠT as
Ġb ending
Ġw omb
Ġder ives
ĠA A
engu in
Ġsh ake
M ich
Ġit ching
Ġtr ump
om ers
bre ak
ĠB irmingham
Ġnot ation
Ġgra ves
ec al
ag ogue
Ġresid ues
ĠP ray
ph thalm
Ġcompos itions
Ġdil ig
Ġbur d
ĠC er
Ġpill ars
Ġcry ing
Ġmelan oma
ab we
Ġfort ified
Ġfacilit ated
ĠB ened
Ġsu ck
ĠHot el
bo at
ĠEnc ourage
ĠF al
19 80
Ġro ver
ĠV ul
ĠGr iff
Ġlegend ary
ĠIncre asing
Ġl i
F ull
Ġh ull
Ġsign atures
de hy
ĠDo ctors
ĠN HS
ol ate
Ġcar ot
ĠW or
Ù Ī
Ġpert aining
b ig
Ġcere als
Ġadvoc ated
ĠMil ky
ĠB ak
os ium
Ġpres idency
Ġtick et
Ġide ological
Ġroll s
ĠScand inav
C are
t ailed
ĠAltern atively
AS S
Ġco op
Ġcle arer
Ġp oured
ĠTanz ania
ĠRich ards
Ġpro active
Ġ2 20
Ġen riched
âĢ¦ ]
Ġhom eland
ĠP O
i atic
at on
ĠEl se
Ġvend ors
bal anced
N ame
me al
ĠL ot
Ġsh y
Ġverte bra
P age
m ad
ipp le
Ġfil tered
Ġh iring
Ġb red
Ġtodd lers
Ġdis reg
ĠExpl ore
You ng
j oys
Ġ ________
ty m
Ġtor que
ĠG on
f ar
ĠStat istical
govern ment
Ġexp ands
ĠFin ance
Ġsc ra
Ġneur on
ĠP ine
Ġaw ake
ĠB ir
Ġeconom ical
ĠPan ama
ĠSam ple
Ġprogram med
c ro
Ġ0 1
ĠBullet in
lex ia
Ġinstall ations
ĠAdvis ory
rough ts
ĠN P
Ġaw esome
Ġcollect or
ĠW ays
Ã ¸
ĠSal v
Ġanomal ies
Ġconflic ting
atic an
Ġmal ignant
Ġsecret ion
ĠN ames
ue z
b ank
on line
os it
Ġaccident al
Ġco ined
Ġmount ing
ject ives
im et
ĠG othic
Ġpra irie
Ġleuk emia
Ġstri pes
ĠCh at
Ġgrad ers
ort ions
Ġrev olt
ĠUkrain ian
ĠStart ing
Ġmicrobi ome
Ġaux iliary
re th
ĠOlymp ics
d rop
Ġnucle i
Bet ween
Ġargu ably
c op
Ġl os
Ġopp ose
Ġconduct or
ĠExp osure
form s
Ġmon ster
ĠA TP
ĠAlexand ria
D an
ĠMay or
fund ed
Ġflood ed
Ġfict ional
fil m
Ġpost ers
Ġretrie ve
Ġl az
Ġgl impse
ĠCreat or
Ġdeb ts
ĠSt ream
ĠCharl otte
Ġe g
Ġin efficient
iv able
ĠI EEE
ĠK in
Ġagg ress
Ġco efficients
S an
Ġdef enses
Ġcultiv ate
Ġsort ing
Ġunivers ally
en cer
Ġant imicrobial
isp ens
ĠTe a
ĠInt el
Ġpat rol
ĠO sc
Ġdef icient
Ġview ers
Ġcool ed
Ġcrit ique
ĠB rist
ĠAn xiety
ant o
Ġdress ing
Ġnom inal
uss ions
ĠAugust ine
ĠG ates
s aving
Ġinter cept
Ġjun ior
ĠKeep ing
Ġd welling
Ġmig ratory
Ġinteg rates
Ġ19 26
ĠHug hes
ĠB enn
ogene ity
ĠGard ens
Ġremote ly
Ġmon archy
i ang
Ġampl itude
l iving
Ġ17 00
Ġquiet ly
ph ase
Ġtodd ler
B ig
Ġstream ing
Ġinvent ions
Ġhyd rop
ur ia
Ġre lic
amp us
Ġopt ic
ĠM ix
ĠS N
Ġdispers ed
bel ie
ur bs
Ġhot els
Ġbudget s
ore ct
Ġrain forest
ĠT ests
an ne
Ġstim ulated
ĠHel en
Ġmort gage
Ġanaly sts
Ġ189 8
iv itis
Ġextrem es
Ġmay or
aw i
ĠN ixon
Ġex ting
ure rs
dom ain
ĠLine ar
Ġreb uilt
ĠRes olution
Ġback wards
C am
Î »
Ġup ris
Ġencourage ment
Ġinfest ation
Ġn ost
ĠThe rap
Ġsail ors
âĢĿ :
Ġdev il
ĠFil m
ĠM alt
ĠSat an
Ġsatisfact ory
Ġmet aph
top l
Ġmunicip alities
Ġco ated
aj a
ĠNG Os
Educ ation
ĠNAT O
ĠInt rodu
Ġâ Ī
p arent
Ġlo ops
st ick
ĠStew art
Ġboost ing
ĠUp dated
ĠFre ud
ĠTre asury
Ġirre levant
cont ent
Ġs outheastern
Ġsym pathetic
Ġ1 18
ĠEd ge
Ġvol t
Ġcar bs
Ġass urance
Rec ent
Ġcl ocks
Ġbase ment
Ġass ure
an im
Ġunc over
Ġth rew
EL L
Ġgl aucoma
Ġb oring
ĠIsa iah
Ġsom etime
ĠBrook lyn
Ġst air
ĠProper ty
Ġw itch
ĠH earing
Ġgamb ling
ĠS ut
ack ing
ĠOrig inally
Ġtransc end
ĠWhere as
r ide
Ġsmooth ly
Ġde ity
Ġswallow ing
Ġsh adows
Ġindic ations
Ġsummar ize
di agn
Ġnanop articles
Ġamend ments
Ù ı
Ġsuppl ier
R esp
Ġenvelop e
C all
iz za
ĠBrit ann
ĠMet eor
Ġle x
ĠAny one
Ġcomment ed
ĠRe h
Ġp a
Ġfire f
É Ļ
Ġbor ne
ĠReg ist
Ġheav ens
Sm all
fu els
Ġen joys
Ph il
ĠSt uart
ĠChe roke
id o
Ġdepict ing
Ġnon etheless
Ġ18 48
Ġbuy ers
ĠRab bi
Ġth igh
Ġm ock
s ometimes
Ġpain ts
ĠE SA
ĠOrgan isation
Ġorigin ate
Ġt il
Ġf ancy
Ġmult imodal
ĠG L
D D
ĠChap el
Ġdistract ed
ort ic
Ġ1 17
Ġb ic
ĠC AR
ĠMont gomery
w ild
Ġelimin ates
sc ribe
ĠComprehens ive
Ġse ab
Ġens laved
Ġsens ations
Ġany body
ful l
ĠDou ble
ie u
ĠPark er
ĠE T
oph ysical
Ġpin point
ĠCor on
Ġwid ow
Ġphysic ists
Ġcom ic
Spec ial
ĠPriv acy
Ġpeas ants
Ġgo at
H en
Ġl ing
w ig
Ġstabil ize
Ġdeple tion
ĠDesc ribe
Ġforg iveness
ĠStan ley
ĠCirc uit
w ear
Ġpoll uted
enn ial
Ġsho ots
ling ton
in h
Ġcur b
Ġster ile
Ġpsych o
l at
ĠB ee
ĠArmen ian
in als
ard i
Ġtur key
ĠMy th
Ġport raits
Ġ18 12
ĠGr ass
Ġbl amed
Ġexerc ised
Ġimp risoned
Ġl ays
ar re
ĠM ack
she et
Ġw it
Ġless en
ex cept
ĠR aw
Ġmission aries
ĠAir port
Ġs pp
Ġign oring
n ih
ĠHall ow
the m
ĠG rowing
Ġ` `
ĠH at
Ġdes erves
ĠLith uan
anc ipation
Ġwe ighed
Ġdub bed
Ġnegot iate
r Ã©
ĠE agle
ĠEpid em
ĠSur face
Ġtoler ant
ĠB M
Ġparliament ary
an cer
ĠInst ru
own er
ĠPartners hip
Ġclin ically
Ġspl end
Ġmyster ies
{ \
ĠV el
ch anging
ĠC u
op athic
ĠCommer cial
ĠCl ose
ri et
g reat
ĠS ikh
ĠCe le
Ġchar coal
Î ¼
le af
Ġscript s
Ġcarbon ate
Ġexceed ing
Ġbapt ism
Ġ190 3
Ġviv o
ĠP ant
ĠPre par
ve t
ĠC up
ĠCo ff
Ġcomp elled
Ġculp rit
Ġstrand s
Ġexc use
ph p
ĠMil k
ĠS oph
ĠF ruit
Ġprem ise
Ġcompar atively
ĠNurs ing
bl ue
R NAs
Ġbe ating
op ath
Ġmut ually
Ġam ateur
Ġphot ons
Ġtechn icians
Ġgest ure
G old
ĠIm aging
Ġrecip ients
Ġar rows
ĠCommun ities
er obic
ĠSt rait
ĠS ina
ĠFisher ies
ĠI bid
Ġun just
ĠModel ing
Ag ain
Ġcyber security
Ġz oo
Ġbr ighter
Ġoverl apping
Ġmo ons
unt ing
Ġoper a
ĠÎ ±
Ġfisher men
Ġb ump
Ġexpl or
ĠHol lywood
V ER
ĠGir ls
Ġpriv ately
ĠCamb odia
Ġreal izing
Ġgood ness
age al
Ġpar alysis
ĠCommission er
Ġec zema
ĠK o
ĠComp are
ĠE ither
Ġattack er
Ġde lete
Ġderiv ative
U I
Ġe go
Ġcal ibr
ĠDem ocracy
me aning
iss ue
ĠRe agan
Ġl umin
ĠI gn
it ching
c ribed
Ġdiagn oses
Ġs ailing
atern ity
Ġarchae ology
Ġabbre v
Ġsp acing
ĠTw enty
Ġredd ish
Ġmarc hed
Ġgrand mother
ins p
az i
Ġqual ifications
ĠSex ual
Ġsafegu ard
in vasive
Ġprompt ly
ĠAm sterdam
Ġdifferent iated
J ournal
Ġmanifest ations
A cc
Ġcontract ing
ĠD ys
Ġro ds
Ï ĥ
f olk
ĠR av
Ġdors al
Ġintent ional
ĠB od
Ġmaster y
Q A
Ġst agn
Ġexcav ation
Ġrep orter
pr im
Ġcustom ized
Ġblow ing
ag les
Ġcou pling
Ġst amps
Ġhomes chool
Ġprevent able
s ided
12 5
M O
Ġsh ale
Le vel
imb abwe
Ġphot ographer
ĠB ru
Ġjournal ism
ï¼ Į
Ġmamm al
Ġtou ches
Jew ish
Ġconstit uted
ĠK ant
Ġblank et
Ġcontroll ers
Ġdev ote
L and
Ġcollect ors
AS H
un al
Ġsens ible
Ġtransfer ring
ari at
st ance
ĠWall ace
count ry
ĠHung arian
Ġin security
l on
Instit utions
the se
Ġcat hedral
Ġpione ering
ch air
Ġban anas
Ġste ering
ĠCoast al
Ġallerg ens
um my
Ġinacc urate
Ġc ir
Ġsupp lying
Ġmilit ia
Ġpancreat ic
Ġed itions
on ial
us k
Ġdeb ated
Ġc ott
er able
mod al
Ġl adder
Ġbibli ography
ĠTar get
ous ands
op p
Ġaud it
Ġpossess ions
ĠCoal ition
ĠK ur
Ġacc us
Ġl amin
Ġread iness
ĠLi u
for ces
ĠHe in
Ġm l
Ġtra ded
Ġsp ans
ight y
or ously
ĠQur an
Ġun lock
Ġhe mp
ĠReg ardless
Ġpig e
Ġconfront ed
: -
Ġaspir in
Ġcho oses
ver bal
C oll
ĠNov a
or p
Ġassist ing
win ning
rosc opy
Ġ190 4
ĠFac ulty
B er
ĠDe an
ĠInst ruct
Ġsc ent
Ġad herence
ok a
Ġlo vers
T otal
ĠArn old
Av oid
reg ulation
Ġlow ers
Ġske pt
Ġtraject ories
Ġgast ric
Ġdel ta
z ero
Ġinit iation
id ad
Ġsad ness
Ġadvis able
ĠExpl orer
t aking
Ġf et
ĠTechn iques
ĠAltern ative
ar cer
Ġsolid arity
ĠY ug
Ġup grade
Ġste pped
Ġhor ror
n ative
Ġcompuls ory
umb ling
Ġland owners
Ġembed dings
b rown
ST M
ĠC oc
op last
Ġend omet
ĠGu y
N s
b ee
stitution al
opt imal
Ġprecurs or
it ures
Ã± o
Ġcommit tees
or ian
ĠIn n
Ġinvestig ator
che ck
Ġreprodu ced
Ġreb els
Ġcart oon
Ġglac ier
ĠCirc le
Ġmult ic
Ġpost ing
ĠL ands
Ġche er
m eter
Ġcoc oa
ĠC ause
r ights
Ġl umber
Ġreb uild
g roups
Ġsn aps
âĢĿ ?
ĠIdent ification
if ted
Ġhe ater
Ġmaneu ver
ank ton
ĠHem isphere
Ġdischar ged
P ut
fact ory
pl anes
work ers
Ġextens ions
w itz
ro cy
Ġf res
form er
Ġenc oded
organ ized
Ġi i
ĠN R
press ure
Cre ate
Ġher ds
ĠL ung
s ch
ĠBegin ning
act ing
Ù ĩ
ĠS I
tle ment
Ġpast a
Ġequ itable
Ġtop ology
Ġal beit
ĠApp ly
Ġf ores
Ġo lig
Ġst airs
10 4
Ġgall on
Ġpun ished
ĠSl av
ĠL ost
Ġfemin ist
ĠKe vin
ast rous
Ġind ispens
ĠEss ential
Ġsymbol ism
a ques
pert ure
Ġglobal ization
ĠRe ality
ĠSum mit
Ġh ath
se ed
Int roduction
Ġwor ries
Ġmiss iles
ĠM AT
Ġsummar ized
Ġsurge ons
Ġown s
Ġins ur
ĠG O
ĠLat ino
Ġanim ated
iss ible
Ġret inal
Ġp ant
u ador
Ġfl aws
Ġcor als
ĠDen ver
Ġhad n
iothe rapy
ph ony
Ġju ices
ĠRe ef
c ondition
zz y
Ġl ac
Ġconduct ivity
r ud
Ġday time
Ġshel ters
Ġw oven
Ġa rous
Ġs nee
ĠPl uto
Ġacc ustomed
Ġre un
Ġall ied
Th omas
Ġconstruct ive
ic c
ĠB ring
ĠY an
Ġk er
Ġcoast line
Ġpp m
ĠBehavior al
Ġ10 4
ĠH ub
g ow
Ġexp ans
m os
fit ting
ĠS id
Ġt read
Ġing en
19 89
ĠCo operative
ĠRequ ire
Ġv as
Ġstory telling
Ġsol vent
Ġ10 2
Ġir res
Ġhard ness
b ly
Ġorn amental
Ġunderstand able
Ġfig ured
p g
Ġdr unk
Ġteen age
ĠRock y
Ġcur s
Ġwood land
v ier
Ġcompl ain
Ġcl o
ak y
Ġsuff erers
Ġcab bage
Ġsl ice
AG E
ol in
ĠCl are
Ġa fore
Ġextract ing
Ġgr as
Ġ16 00
Sp ace
he id
ilit ating
ent ry
Ġep ist
Ġmission ary
Ġc ube
Ġopen ings
Â º
ĠJ e
Im pro
B ra
á »
Ġv ap
ĠG roups
Ġmonop oly
P ower
Ġw ins
in arily
ĠZ o
Ġdegrad ed
Ġr ipe
st ore
Ġpar alle
ograph ically
ĠJ ur
Ġappoint ments
Â µ
pend icular
Ġlivelihood s
Ġmant le
S un
Ġpo etic
vers ible
at ts
th ose
w rite
Ġwe ird
ric ted
ĠRecon struction
ĠF REE
ĠN J
Con f
ĠR ES
Ġst alk
ĠRes istance
ĠPier re
Ġ1 13
Ġsed entary
Ġaff air
Ġsk ies
t z
iz ards
mans hip
Ġcan cell
ĠPict ure
Ġ1 14
Ġrev is
Ġdeleg ates
Ġchief ly
D B
Ġcaut ious
Ġassist ants
Ġreal ise
Ġrel iably
Ġdistingu ishing
ĠHer od
n umber
Ġres olutions
ĠSt ri
C I
Ġdef ended
ĠSer b
l ag
Ġsearc hed
ĠD ragon
g un
ĠVir us
Ġpolit ician
ĠTes la
ush ima
Ġun rel
ĠMont essori
Ġrev ival
Ġexpress ive
ĠR oot
R oman
ĠG N
ĠF ib
ĠUs ers
Ġpenal ties
ĠV atican
ĠSc ots
accept able
Ġg inger
P G
ĠPot ential
M B
âĢĿ ;
arent ly
ĠAdd ress
ĠM ul
Ġrest ra
Ġob struction
Ġhand writing
ish n
Ġcat heter
ru its
Ġsculpt ures
M o
f ile
qu al
Ġdec oration
ION S
Ġcred ibility
develop ment
L LMs
Ġunder gone
ĠH ond
ĠSc out
aff ected
ak ia
Ġmon key
ĠOptim ization
Ġhas h
ĠPh araoh
Ġrep ent
Ġpow d
ĠC ad
Ġproceed ed
ib les
c over
Ġexception ally
Ġconstitu ents
Ġhon ored
ĠRap id
M ain
m icro
ighth ouse
orect al
des ign
ĠApp roximately
Ġaggreg ation
cler osis
Ġsupp ressed
Ġon t
Ġconj ug
Ġevac uation
Ġ !
Ġimp ulses
ĠPubl ishers
ĠS oc
Ġfor aging
Ġrain y
Ġwar rior
reg ulated
Ġameric an
Ġe uro
Ġunsu ccessful
ĠB omb
min ster
Ġflav ors
em ption
Ġstr angers
ĠMot ion
Ġal coholic
ĠA aron
ĠConstitution al
ĠE uc
Ġtables p
ĠB ath
ĠSep ar
Ġback ing
Ġd roughts
Ġrespir ation
ĠAstr onomy
l iter
ĠC ome
Ġenc oder
Ġworry ing
Ġrece ipt
iol ent
â Ĩ
Ġsp heres
Ġfortun ate
ract ice
Ġsp herical
if ts
ĠP ont
Ġan ecd
Ġfin ances
Ġgra phen
Ġaccomplish ments
Get ting
ear th
Ġins ign
Ġve gan
ĠC ord
le tt
Ġgraph ical
ĠWood s
ĠCh a
Ġide ally
Ġimag inary
Ġ1 16
Ġest eem
tra ction
Ġatt ent
Ġcollect s
so lete
Ġflat ten
Te chn
Ġself ish
Ġam p
Ġs ne
Ġsun set
Ġexec ut
ad apt
Ġprog nosis
Ġpupp y
Ġ17 0
ĠG row
Ġshow c
l ayer
Ġit erative
Ġeru ptions
Ġsuper natural
Ge orge
ĠAn al
dehy de
Ġcon g
Ġsan ctions
Ġmark ings
Ġgraphen e
Ġfour teen
ĠRec ogn
Ġsuperf icial
Ġpreced ed
Ġthrough put
y on
ip el
Ġon c
Ġb ourgeois
Ġp ause
Â ½
arb ons
ĠAr duino
Ġs age
Ġoptim izing
Ġle v
mun ition
ĠRad iation
ĠGl as
ĠThe atre
Ġfore front
Ġcan e
T w
Ġdoub ts
Ġamb ig
ĠDiff icult
greg ated
ĠMet ropolitan
cl in
Ġsimpl ify
Ġimprison ment
ĠNe urolog
Ġst en
ĠH omer
ĠL it
rint ed
Ġabs urd
ï ¿
ĠSur ve
Ġent ails
asc ar
AN S
Ġs erm
Ġdis astrous
al one
irection al
ĠInit ially
g ard
not es
ĠW heel
Ġpur ification
Ġmult imedia
review ed
Ġneut ron
T T
Ġdisp osed
ĠPl astic
Ġp uls
um ar
al ach
commun ications
Ġexp ects
Ġdiss olve
Ġrec alls
or um
Ġgarden ers
Ġneuro science
at onin
ĠIncre ase
Ġinf ancy
Ġbless ings
ron ts
ĠE lements
Ġ3 000
r ase
ĠR alph
art a
Ġreg imen
Ġbo iled
ĠVenezuel a
w heel
Ġ190 2
Ġencl osure
ĠBuff alo
ro ved
e ating
l antic
Ġspan ning
IT H
Ġsup rem
Ġ189 6
k ar
ens en
Ġport al
ĠLess ons
ir l
L Y
ĠPower Point
b ands
ĠConstant in
ĠC rypt
Ġtext iles
Ġembry onic
so le
Ġdra ins
Ġsoci ology
Ġdisrupt ed
Ġdens ities
ĠV oc
iv ist
Ġben z
Ġperiod ontal
or ative
Ġpersonal ities
iment ary
Ġprob abilistic
as uring
Ġf ond
ĠAll ies
Ġphot ographic
ĠMy anmar
Ġinfl amed
chest ra
ĠL ion
Ġsc ream
ou x
he art
Ġg or
ĠW ritten
ĠJ en
ur istic
ĠS abbath
ic uous
hold ing
Ġmanifest ation
w ould
Ġbott len
gen erated
ĠD L
Ġfulf illing
Ġbar n
Ġ24 0
ĠMon ument
Ġundes irable
Ġmer ged
ĠS olid
Ġfig ur
est ones
Ġsh ine
bl og
ĠN athan
Ġnav y
Ġsocial ism
ke eper
âĢĿ âĢĶ
Ġstat ute
ĠBrist ol
Ġd ess
Ġdisc retion
Ġcred ible
l oss
Ġchim pan
f ired
ĠJo in
Ġl end
Ġobserv ational
Ġtransmit ter
Ġrefere nd
Ġacceler ating
ĠRecomm end
f light
Ġr im
Ġt ect
Ġpath ogenic
ĠFil ip
C ap
ĠC arm
Ġver tically
ĠHindu ism
ĠNort heast
Ġheight ened
Ġnav ig
Ġ10 3
Ġsett ling
Ġi Phone
Ġbr an
ĠForm ation
Ph ysical
l m
Ġo val
Ġsub m
Ġl ane
av an
Ġm ism
Ġorb iting
Ġatt en
ĠEns ure
ĠExpl oration
em ail
Ġcompost ing
Ġsp or
Ġappe als
uth ors
Ġqu artz
ĠK night
rit ic
Ġvot er
pe ace
Ġad jective
ut ory
ĠG az
Ġfib res
Ġstar vation
ĠK or
ĠArm strong
id ated
ĠHallow een
ĠH i
ĠExper t
ĠRh ode
ov o
Ġdis gu
Ġcomplex es
ĠPro c
yl ene
ĠWebs ite
Ġneighbour hood
Al ong
ĠR ig
c os
Ġpref ix
ven ous
Ġb ishops
c ross
Ġremn ants
Ġdesp air
Ġcuis ine
Ġch alk
ĠIn sect
id uous
Ġsens it
iar ism
pris ingly
ĠOccup ational
IC AL
r ina
ĠEd wards
Ġcontin ual
ĠS aints
oc l
Ġblow n
Ġexpect ing
Ġinter course
gen eral
Ġthick er
Ġ10 6
ĠW A
Ġabsor bing
Ġscreen ed
ĠR ol
ou st
Ġnort heastern
Ġkin etic
Ġgra ding
Ñ ı
ĠY am
ĠK on
Ġrepl en
Ġmarket place
Ġswe ating
to xic
in ational
Ġn arc
ĠOm ega
Ġuseful ness
Ġfat alities
ĠON E
Ġhead lines
ra ble
Ġnucle ot
T aking
Ġadd itions
Ġ18 95
Ġbr ide
br ids
hel m
S er
C y
Ġ1 19
Ġlifest yles
ox in
p rom
ĠV PN
ĠDr inking
ach t
ĠMid west
ĠFem ale
ĠD allas
Ġover flow
Ġle verages
Ġdilem ma
Ġflour ish
rust ed
ĠSecond ly
ĠC IA
Ġh ib
Ġl aund
ĠOb esity
am ines
Ġcrew s
Ġcur v
ĠJ eh
Ġmod eration
Ġabol ished
Ġpu ber
Ġhold er
ĠAnsw ers
do ctor
ĠDo ing
Ġauthor itative
ĠAl m
ĠSe lection
ĠS low
ĠW ear
Ġpresent ly
Ġlic ensing
ell ows
neg ie
Ġreh ab
10 5
Ġsoy bean
ĠNo vel
Ġh iking
st en
Ġleg umes
Ġp acks
Ind ian
Ġfant asy
Ġus able
ĠCon duct
ĠTem perature
c orn
M en
Ġins ist
l arge
AC K
osc opic
ĠFr ances
keep ers
Ġslow ed
ĠM ale
Ġgener a
ĠB anks
ĠWell s
Ġpersu ade
Ġpedest rian
Ġamb ition
icult ure
Ġsubsc ribe
ĠL ay
An n
Ġev angel
S at
ĠSupp ly
ĠAustral ians
m ult
S il
ĠLib eral
Ġcan s
Ġdra ined
ĠÎ ²
Ġcustom ary
ĠTrans lation
Ġadvis ory
Ġreflect ions
Ġsemiconduct or
v ents
M ad
ef ined
ĠL amb
ĠUn less
T alk
Ġrif le
perform ance
ĠN IH
Ġty ph
Ġge othermal
Gen erally
ĠB our
Ġcalcul us
Ġprob iotics
ij i
Ġany time
P rim
d est
m ake
ĠUS SR
Ġbed time
Ġbegin nings
em ann
Ġrel ational
ï¬ ģ
D el
Ġcre st
be ans
Ġfound ers
Ġb ilateral
Ġau ction
Ġsew er
Ġfertil ization
Ġno ises
Ġneighb ouring
Ġco aches
ĠB alk
Wash ington
Of ten
Ġtack ling
Ġin organic
ĠDrug s
T er
ĠAstr onom
Ġhard y
Ġt ails
Ġunch anged
Ġclass ifier
m illion
ĠCommer ce
Ġgran ite
ess ment
ĠBur g
Ġend ocrine
c ritical
en za
ĠEv ents
Ġl iable
Ġref res
En ergy
ĠB ert
utri ent
Ġencrypt ed
Ġtend encies
Ġfoot age
Ġdorm ant
Ġreven ge
ĠMon itor
Ġas ylum
ĠH oney
ass er
Ġs ocket
Ġfore nsic
Ġdiscl osure
ĠBr id
ĠZ imbabwe
cent ric
ĠReview s
Ġhard est
ĠTh y
ĠLe ave
ur gy
Ġd ock
Ġcryptocur rency
L ight
Ġres ign
Ġchamp ion
Ġaug ment
Ġprot agon
Ġprevent ative
ft y
Ġderiv atives
Ġf are
Ġimper fect
Ġviol ated
W rite
ĠV a
Ġvast ly
ib ular
Ġpump kin
Ġe u
ath a
Ã ¯
Ġmoder ately
Ġv iability
ĠLe o
c igare
Ġunderw ent
ĠM ail
Ġsubsc ription
urd y
ĠIndones ian
Ġlett uce
Ġlas ers
ĠiP ad
Ġimp osing
Ġdest iny
ĠInter pret
S pe
app rox
m ith
Ġric her
ĠH ipp
Ġexplore rs
ro e
Ġa z
Ġlog istics
urn ed
Ġlat t
ĠPhill ips
ĠBe hind
Ġbiom ark
Ġ12 8
iv orous
aph rag
Ġdynam ically
l ance
ract ical
Ġplan ners
ĠN ine
Ġindispens able
ĠCo hen
Ġmini ature
Ġlot tery
bl ind
ĠRog ers
idd ing
T r
ĠBr us
ĠT CP
Ġsqu ash
Ġunderm ine
Ġslow s
report ed
Ġvibr ations
Similar ly
icul ous
Ġaut istic
Ġpop e
Ġa ided
ut an
op ping
Ġter ra
Ġveter an
Ġcl og
ival ent
ĠMedic are
Ġembod ied
ha us
AM A
Ġshe ar
ĠReg ulation
Ġpuber ty
ĠM I
Public ation
se par
Ġexplo iting
Ġafore mentioned
Ġbeat en
Ġproc ure
ĠHam let
ĠAl pha
Ġmet adata
Ġbl ended
Ġmult if
Ġ[ âĢ¦]
h im
d iff
ĠArchae ology
cript ions
ino ids
ĠGuatemal a
Ġsy nd
u er
ĠComm ander
ĠPoll ution
En vironmental
Ġl un
Ġer y
Ġcl an
ĠIn form
P ot
AR D
Ġdeple ted
ĠS ons
Ġp sy
e ight
ber y
Ġmot ives
Ġpip elines
Ġpump ed
Ġenroll ment
ĠC B
ĠG rey
intend ent
ivid ed
ĠTre nds
Ġchem ically
Ġam en
Ġamb iguous
ost ics
ĠHer bert
Ġsepar ates
hand ed
Ind eed
Ġcl ue
U SA
e ing
Ġca red
ĠCal vin
ĠS hip
Ġenrich ment
Ġcru ise
ract ed
Ġpe asant
Ġsk i
Ġinf ertility
ur gical
Ġwr ink
Ġsevent y
ĠGra ce
onel iness
ĠEc uador
Ġfr ank
ĠH undred
! ).
Th ird
ĠP ET
Ġweigh s
pl ication
ĠWW II
ĠAnt ib
ĠL isa
Ġtransmit ting
h arm
Ġir rad
oc ations
Ġprophe cy
Ġcand le
ï¿ ½
Ġid ol
ĠInf ection
Ġd engue
Ġcyt ok
ew orthy
oler ant
Ġstr anger
Ġfl ames
ĠSh i
ĠRead er
Ġannot ation
Ġsp ouse
ĠAc cept
Ġj ealous
Ġdist orted
Ġar che
Ġcand les
Ġbind s
ĠW ere
ĠPun j
ĠIn come
osp els
by ter
ĠH z
Ġuncertain ties
st atic
ĠC ats
P arents
Ġn ap
ad al
Ġf ills
Ġhorn s
Ġtoothp aste
Ġ0 8
Ġdisc ol
ĠA us
Ġvacc inations
ĠR yan
ĠTur ks
Ret urn
Ġsub urban
ĠImpro ving
Ġm osaic
ĠE EG
Pro ject
Ġf ibr
ĠEx odus
Ġt an
Ġmouth s
Ġjudge ment
Ġknowledge able
Ġconsp iracy
Ġspecific ity
ger ies
tern ally
ast ical
ĠAd ding
ĠM ob
ip es
Ġcondem n
ĠI bn
Ġcra b
Ġscler osis
Ġimpact ing
ĠDisc over
ety l
ĠSch w
Ġst ove
inf ection
t reatment
Ġtem p
ĠC inc
Ġrec laim
ĠSt orage
ĠAtt ribution
ĠP overty
Ġasse mble
Ġmeas urable
Ġant ip
T s
Ġdem on
Ġdep ressive
aunt ing
ac id
Ġunw illing
ĠFe el
ĠG un
Ġexp elled
yn chron
odyn amics
ĠD iss
Ġorph an
Ġse ated
V ideo
Ġastronom er
c it
ner g
Ġprogram mers
ert iary
Ġhero ic
k an
Ġrelax ing
op al
Ġnic he
izz es
ce mia
ĠFif th
en berg
Ġillum ination
Ġshel ves
pur pose
14 0
Ġbas elines
ĠG ay
it ian
Ġreg ain
D iff
Ġ10 8
Ch inese
Ġassass ination
T ur
Ġby tes
ĠOld er
S am
Ġinc arcer
ĠDiff erence
Med ical
Ġinhib ition
il ized
ĠRon ald
Work ing
Ġment or
Ġendeav or
Ġinn oc
Ġelect roc
Ġshow case
ss on
ĠPat ient
Ġantiqu ity
Ġin ward
IC S
ĠLau ra
Ġt ile
Ġsix teen
Ġd urability
id i
ung al
ĠC ave
com plete
Ġre charge
os omal
ç ļ
Ġcontract ors
11 11
Ġmod ifying
is ans
Ġrep aired
Ġinter sect
ĠB row
Ġh inder
Ġh ose
Ġtem plates
Ġgate way
Ġp end
Ġsuspic ion
Ġmill ig
ch in
ĠOd ys
re search
ĠT M
Dig ital
Ġr ud
Ġar id
ĠV oy
ĠC od
om i
Ġper pendicular
fact s
ent e
be fore
ĠCert ific
Ġpoll inators
Ġrain bow
ĠH ost
ĠS ustainability
ĠC ategory
P rodu
os omes
ĠPas sover
Ġt yr
S k
Ġz oom
chan ical
Ġvert ices
ĠF ailure
Ġp its
B uilding
Ġexpend itures
Ġsent enced
Ġgram matical
Ġbed room
ĠGalile o
Ġd yes
ĠW ool
ec a
ill as
16 8
Ġoblig ed
Ġare na
ĠL anguages
ĠForm at
Ġinterven e
ĠAd obe
ĠUS D
Ġfold ed
Ġdon ate
ĠS or
ĠTim othy
Ġh ips
ovolta ic
Ġcan ine
Å Ĥ
ĠB elt
Ġdivid es
Ġdest inations
Ġfre ight
Ġam munition
ĠI X
ĠS ultan
ĠBud get
Ġf el
Ġsc ared
Ġfort ress
embr ance
ĠÂ ½
ĠM ead
ĠS pl
c ertain
Ġd ash
Ġde formation
Ġclass mates
en erative
g ering
ĠS ocrates
b uild
ĠG ross
ĠS ites
Ġret in
man ned
Ġles ion
Ġvegg ies
ĠFin nish
Ġdec ree
ĠR C
ĠRein forcement
i aries
Ġhead er
Ġp rag
Ġl adies
Ë Ī
Ġb ree
Ġlandf ills
ĠCh ance
Ġaspir ations
ĠAccording ly
B est
ĠMes opotam
Ġfl are
Ġcarcin oma
are a
Ġclear ance
Ġmon k
Ġconcent rating
ĠHar vey
Ġdisadvant aged
in it
ĠCont ract
ib ia
ĠSub ject
Ġprob es
ĠM ang
Ġdisc ourage
Ġhel pless
Ġannot ations
Ġfound ational
Ġretail ers
Ġout we
Ġcl ots
Ġwild fires
Ġ189 3
ab sor
I AL
Ġtun a
Ġret ard
Ġc ov
CS E
Ġ10 7
ĠBiod iversity
EN CE
ĠEx ternal
ĠD aw
Ġgar ment
ĠMedic aid
ĠSe ason
Ġp iles
ĠT odd
Ġt atto
ĠLanc et
Ġins ult
H ead
Ġpack ing
ĠRedu ction
ĠTas man
Ġend ors
ag ascar
Ġman gro
Ġmid night
Ġlog o
ĠHun ter
Ġthin ner
t ain
Ġsplit ting
Ġp aved
Ġhor r
on ts
ri en
Ġbeautiful ly
Ġaccept s
ocy te
ĠStrateg ic
W ant
Ġf ights
ĠDis abilities
Ġo st
Ġlig aments
ĠVin cent
iction aries
Ġsu ms
ass y
ĠFe atures
Ġsor ry
G AN
Ġst ark
L ocal
Ġshort est
Ġsh aking
ĠU AV
uck er
ĠP redict
Ġp ent
ĠB right
Ġprosper ous
Ġover sight
Ġmillenn ium
ore rs
Ġsynthes ized
Ġt am
ig ens
Ġnew est
re nd
E PA
Ġover dose
ce mic
ĠYug oslav
ll or
ĠSch olars
Ġhum il
ĠB ent
Ġrab ies
Ġpol io
M ary
ĠCh an
Ġdead line
Ġanatom ical
ĠF ul
ull ivan
st ad
ĠCh anging
Ġfost ering
se ason
Ġhipp oc
g rams
ĠVol can
I mp
thern et
s ay
ic able
ĠEm ily
M ethod
f em
ĠH A
Ġdr astic
Ġsp ikes
ĠE lder
Ġinsert ion
Ġrational e
ĠVeter inary
Ġmis use
ĠM erc
ĠOb viously
uk i
Ġafter ward
ĠBened ict
ĠLED s
Ġbe ast
ra z
ĠRe ed
Ġapprox im
ĠQ ual
Ġvill agers
ver ted
ĠManufact uring
Ġpione ers
S elf
Ġsub species
Ġâ Ĥ¬
h art
Ġre usable
ĠHind us
Ġswe eping
ail ability
ĠTer ms
Ġt ant
Ġtend ons
Ġcram ps
reat h
Ġpl un
Ġgen res
Ġintu ition
Ġc rick
ĠT rou
L anguage
prot ected
Ġdet ention
ĠWorks hop
Ġ18 99
Ġapp end
uk ary
âĹ ı
ĠC AD
ĠM all
d esc
ien cy
r c
Ġle ase
E th
spec ial
ĠConstantin ople
Ġdermat itis
F s
Ġle m
Ġexp orted
Ġcirc adian
th ag
C ertain
chie f
ĠG ary
Ġtal ented
Ġm oth
cast ing
ĠBrig ade
ĠB one
Ġcoll ar
Ġr ansom
Ġper vasive
Ġmig rant
C ong
ĠBalt ic
ĠBron ze
Ġpatri arch
ĠGir l
ĠConf lict
Ġrad ically
Ġw rest
ĠSe vere
ag ne
Ġcon greg
Ġdimin ish
Ġfemin ine
M ENT
Ġ ðŁ
ĠL ives
Ġcl ips
Sh ould
ĠIdent ity
Ġscal ability
ĠT et
Ġempower ment
ĠF ab
Hel p
Ġsuper nov
Ġb ury
Ġreconcil iation
Ġst y
ĠDraw ing
ĠApp endix
Ġattract ing
IN T
ĠInter active
Ġtum our
bul lying
ate red
Ġdep uty
k n
Ġmagn ets
Ġpsych iat
ĠS olution
at ched
Ġpoly mers
Ġfair y
Ġreb el
Ġd y
Ġsug ary
H yd
20 21
Rober t
sp ective
Bl ue
ĠEm otional
ĠBrother s
Ġp all
ĠTh ai
Ġfront al
ĠRe formation
ap a
ey e
ĠB ond
ĠPresent ation
Ġn inth
IC EF
Ġman gan
ĠLevel s
Ġimplement ations
Ġscat tering
Ġin oc
ĠA gg
il itary
19 88
ĠSina i
Ġt a
ĠJ A
Every one
ĠChall enges
ĠCon versely
Ġrec urring
Ġpack aged
ĠR y
ath on
ĠRest oration
Ġnot orious
Ġaug mentation
ple mentation
' )
M ass
author ized
Ġfix ing
H ER
Ġmemor able
L ink
c ible
Ġacid ity
ĠPal m
ĠN ad
ĠVeter ans
Read ing
Ġun im
Ġparas itic
ing les
Ġarm or
m ax
Ġcontem por
conf idence
Ġorigin ating
ĠL uck
E ast
rit es
Is rael
is ch
ect omy
hol m
ĠSh ar
ĠT ak
oot ing
Ġcapac itor
ent ric
ĠFe ature
ae us
Ġcancer ous
engine ering
g ated
Ġl ending
c am
W riting
) /
in ety
Ġabst raction
rad es
a vers
ason ry
Ġhed ge
Ġindic ative
ell es
ro y
ĠSp ot
Ġpropri etary
Ġattain ment
ĠAct ually
ĠPro du
Ġcher ry
Ġfabric ation
ĠDom estic
ĠPhoen ix
Ġsur name
ĠCy cl
uff s
Ġd ances
Ġ18 89
y ards
D ou
Te ch
Ġmel ted
oss ibly
F ar
Ġdisc s
id able
Pl ant
ag ar
Ġbal ances
Ġexting u
Ġob solete
ĠB A
Ġhop eless
av al
Ġstat istic
Ġscrut iny
Ġc hess
Ġconnect ive
b low
ĠGP U
Ġtrig lycer
ĠBatt alion
ĠDem onstr
ĠPl aces
ĠEx am
Ġ18 20
ĠP T
OR Y
Ġsouth western
Ġsymp athy
op a
Ġwar ns
Ġac ron
Ġsubmer ged
Ġret ains
Ġtr ivial
ĠHon or
Stud y
ĠB erg
Ġbal d
sw orth
ĠPublic ation
Ġumb rella
Ġhigh ways
st ri
g r
Ġs arc
ĠMed al
Ġsan it
ĠMoroc co
Ġred ness
Ġcent imeters
ĠM Ã©
Ġd ire
ĠM ann
ĠWorkshe et
ĠA PA
ĠGram mar
Ġb iting
enn on
Ġtransport ing
ĠDisc ussion
Ġcan ned
P y
ĠCh oice
ob iles
Ġsun shine
Ġdefend ant
Ġpra ised
Ġneighb ours
ĠPC B
Ġref usal
Ġex cel
Ġprohib ition
Ġrich ness
thod ont
ĠHom o
ĠKe pler
ĠFarm ers
Ġformat ting
ud ed
Ġlawsu it
ĠR are
ĠS weet
represent ed
h l
em p
w oman
Ġbegin ners
Ġhel ium
Ġreal ised
sh ould
rom eter
Ġemphas izing
Ġf ried
Ġdisp ose
enn a
Ġdis ks
ass ic
link ed
ĠN ancy
Ġ18 71
Ġdisp osable
ĠP osition
Ġprot on
ĠL LC
P o
Ġste pping
Ġanthrop ology
Ġintermitt ent
F I
B ER
Ġ186 7
Ġy arn
op ian
Ġbenef ited
Ġv ault
ĠCop per
onom ics
Ġassert ion
Ä ĵ
Ġp soriasis
Ġinform ational
ĠE is
Ġmig rated
Ġw ipe
ĠL ip
ĠM M
Ġprot ons
Ad v
Ġcal ves
Ġdep ended
Ġplan k
Ġover see
u ction
Ġpo res
ĠBas il
ĠR ick
ograp hed
Ġaff inity
Ġf use
Ġam ended
ĠLead er
Ġabsor bs
ĠH amm
Ġcomp ose
Ġhem oglobin
yl oid
Ġmod ulation
N OT
ĠA verage
Ġcop ying
Ġtut or
ĠHe avy
çļ Ħ
ĠK B
Ġequ ip
Ġpriorit ize
ĠT oy
c ausing
ĠR ut
Ġdiff use
ĠMod ule
Ġhapp ier
Ġhero in
ĠBu y
Ġg aze
Ġp ushes
Ġmorph ological
ra is
ĠTraff ic
ĠL ux
osaur us
ich i
Ġrec urrence
Ġd ucks
Ġteasp oon
ĠW u
Ġt innitus
on gh
Ġsw amp
Ġens ured
Ġcl er
Ġsulf ate
Ġh ood
ub es
ĠAb ove
ä º
Ġcr ushing
ĠC riminal
ĠH V
ach i
Ġplate au
Ġdict ators
ĠCheroke e
Ġsal aries
Ġsub stitution
Ġch ords
Ġun le
Ġfa ulty
opl an
ba um
Ġconf ine
b ies
ĠReg ulations
ĠH ier
ĠAc ross
ĠO g
ĠPract ical
cent ral
Ġvoc ational
ĠOr th
Ġgi ants
ot ism
Ġspark ed
Ġuns ure
Ġboost er
en ic
ut ral
Ġen v
Ġo h
ĠSom ething
Ġexch anged
T est
Ġcommit ting
Ġmanip ulated
am o
Ġ189 7
ĠAz tec
Ġcust ody
Ġmangan ese
othel ioma
Ġ10 9
ĠGil bert
Ġw aking
if erous
ĠEx ped
Mat thew
ĠSac rament
F r
Ġco aching
Ġmitochond ria
Ġp ension
ĠOtt awa
t alk
Ġan onym
als y
ann on
Ġl ice
Ġtri angles
ĠA w
Ġeight een
Ġcontin uation
Ġaddict ive
Ġcroc od
ĠAb bey
Ġprim ates
Ġle ague
Ġrel ativity
âĢĶ âĢĶ
Ġten ure
ĠT ed
Ġdepend encies
ĠRob in
Ġo ath
apt ic
part icularly
res cent
Ġattract ions
ĠCar negie
Ġd ad
Ġparam ount
Ġpost p
ĠLe af
Ġdial ects
Ġpl umbing
à¤ ¤
Al tern
ĠPresident ial
Ġsp y
Ġcon ject
reg ation
ivari ate
od erm
ĠGe or
Ġaster oids
Ġenthusi astic
Ġrestrict ive
Ġcook ie
col m
Ġc ess
L aw
Ġlist ened
ĠSocial ist
ĠZ en
enh agen
Ġteen ager
in formed
Ġsol o
ĠBut ler
Ġexcav ated
Ġh ort
ĠT ag
Ġal ly
ĠV ik
10 8
id y
un i
app le
res pect
Ġdist illation
Ġsw ine
Ġbas ins
Ġdom ination
he e
at est
Ġcosm etic
Ġsex es
ĠLog ic
ĠProper ties
ĠD ew
Ġgrand parents
Ġun acceptable
Ġab uses
AR C
Ġf ructose
w y
ĠF uel
Ġsil ica
Ġcurric ula
Ġanalog ous
Ġm RNA
Ġprofess ions
Ġbrows ers
ĠF ill
T V
ĠY emen
Ġdeep est
ĠN y
so ever
Ġreact s
Ġc ush
F re
Ġch icks
ĠInfect ious
et a
Ġfra cking
ĠNeed s
em er
ĠIn g
Ġrighteous ness
Ġdecl aring
ble ms
Ġcontract or
ĠDiagn osis
Ġgroup ing
ĠAll ergy
Cross Ref
ĠGen ome
Ġverte x
ĠF ear
Ġvag ina
Ġst ing
b ably
ĠC ret
Ġl ively
Ġcred entials
ĠIs ab
ĠRen ewable
Ġworth while
medi ated
Afric an
Ġhyd rated
ĠList en
V ery
Ġtri angular
Ã «
Ġout dated
Ġh ints
M edic
Ġst ained
ĠS hen
ĠHT TP
Ġfundament als
ĠK irk
ĠCons idering
Ġtutorial s
em ade
Ġ( -
is ks
ĠFact or
Ġm aid
om o
Ġt art
ic iary
Ġtre asures
Ġly rics
V E
Ġ0 9
Ġthreat ens
In it
ĠGlas gow
ĠCh in
Ġreferen ced
M ap
Ġd ining
Ġpres idents
ls on
Ġsport ing
Ġbuild ers
Ġprefer ably
asion ally
Pl an
Ġpl acent
W estern
ĠM unicip
im ming
S W
Ġch airs
Ġf eces
Ġwart ime
Ġsup ers
Ġv ain
ind a
Ġassert ed
Ġsing er
IS A
Ġappro ve
ĠT ong
Ġtrig gering
v irus
Ġf ern
Ġ18 85
ure r
ĠL is
B ur
16 0
Ġ- >
in ia
ropol is
ĠS Y
Ġcon es
ĠCon vers
Ġrupt ure
Ġm alf
aps es
Ġres ent
Ġres ervation
C ur
Ġl upus
Ġeconom ist
Ġprepared ness
ĠV as
Ġge ologic
Ġon ion
Ġprest igious
t hens
Ġcomplex ities
Ġreward ed
19 87
à¤ ¿
Ġdiver gence
ro ots
Ġno v
â ĸ
Ġcoun cils
Ġ17 76
Ġgar ments
Ġfact ual
Ġpar a
) âĢĶ
inn ati
Ġexcav ations
Ġgrass lands
F OR
Ġp orous
ĠW ave
Ġdiss ip
Ġdest ined
Ġsince re
a ution
Ġon wards
ĠO ptions
ĠMong ol
Ġactiv ism
Ġf ins
Ġre de
comm on
Ġinterrupt ed
d ie
il ian
in form
Ġcommemor ate
ĠClear ly
Ġun real
ipp ers
Ġpubl ishers
Ġhypot hetical
Ġric hest
Ġchol era
P sych
ĠTh an
ĠT rain
c s
Ġbroad band
ĠBack ground
ĠS ett
Ġir rational
lu ence
ĠMah ar
Ġid i
pro gram
ĠN F
Ġpet als
des igned
Ġstick ing
Ġgl orious
E r
W ild
Ġtransplant ation
L ater
ĠLast ly
Ġcons erved
Ġbel ts
Ġmic ron
Ġne c
ĠSand y
Contin ue
Ġcontact ed
Ġiv ory
Ġpres erves
c ur
pl asia
Ġglac ial
Dep ending
Ġflu ency
ĠE P
b lo
Ġlo ver
ĠL ayer
Ġmusic ian
Ġreg isters
rog ate
Ġwithd rawn
Ġqu arant
G D
Ġs ab
Ġsmell s
Ġrheumat oid
Ġp add
Ġinflu x
H um
Ġdi aphrag
Ġstand point
ĠRe yn
Ġfrustr ating
ĠF lex
Ġking doms
unt ime
ĠAud io
m onds
eck er
ĠV iking
ĠNeuro science
Ġse ptic
19 70
ĠPy ram
Ġ186 8
ĠCh ang
Ġadverse ly
Ġun m
ĠGod s
U r
ĠMad agascar
umb led
et ooth
u itary
c ot
Ġk not
Pl ace
Ġprop osing
Ġg y
ĠAl ger
Ġpunct uation
ĠVeh icle
ĠJama ica
ĠO ste
Ġabs cess
Ġtrans gender
se ctions
Ġbread th
Ġst ellar
Ġkil ograms
L ittle
el ia
ĠK aren
Ġcur se
ask et
ach ine
Ġin active
ck er
ĠCru z
Ġins criptions
ĠFuk ushima
Ġconsult ed
ĠC ere
Ġrep ell
ĠRout e
Ġp amph
Ġing ested
Ġa perture
Ġforeign ers
ĠB ach
ĠBi ography
qu est
Ġut most
ĠFirst ly
Ġmer its
Ġb a
Ġcoop erate
Ġun ite
Ġsuper v
educ ation
Ġprob abilities
T L
ĠImport ance
unt ed
egrad able
ĠPr incess
Ġattract s
Ġreferend um
ĠEnter prise
ul er
it ted
Ġmor ally
Ġb un
Ġtermin als
urch ase
ĠR ica
Ġper imeter
an za
oprote in
ĠZe us
Ġh urd
Ġhy brids
e ers
ĠHar old
Ġcoord inator
ĠMart ian
Ġa kin
Ġra p
Ġfarm land
Ġhom osexual
ag in
Ġpl at
ack ed
Ġsal inity
Ch ild
Ġconfig ured
amb ia
ay ed
ĠJul ius
ar g
Ġtra des
Ġz ebra
int rodu
Ġdism ant
Ġnational ist
ic illin
os ome
Ġv icious
Ġrenew ables
Ġrock ets
s il
Ġca f
ĠF O
Ġsl iding
Ġdestro ys
Ġoff ense
Î ²
ĠHim self
Ġconf use
âĢ ĳ
ĠB O
W ood
d al
P rior
ĠEc osystem
Ġlog in
Ġs inking
Ġcondition ed
Ġav ian
Ġshock ed
ĠYellow stone
is se
Ġinv ade
lab eled
Ġrot or
Ġbreast s
Ġsevent eenth
ĠW ald
Ġprompt ing
Ġcur rencies
( \
ĠMet al
âĢ ł
ĠW iley
Ġtoile ts
Ġv i
Ġoste oarthritis
Ġjump ed
Ġprogress ed
Ġsc av
Ġcoat ings
ens or
pp e
let ons
ĠBritann ica
ĠH ugh
Ġkey words
ren ches
AR Y
ĠW elfare
ĠExt reme
Ġirre versible
Ġcor ro
ĠWhen ever
Ġover coming
Ġgerm ination
Ġsurre nd
Ġprivile ged
Ġrain water
Ġprom inence
N D
Ġant is
ĠRac hel
Ġslic es
ĠRoman ia
ĠScript ures
ĠGod dess
Ġhes itate
M or
ĠCompar ison
Ġrun ners
Ġlact ose
Ġcounsel or
Rec ently
Ġtorn ado
ĠW E
gh ai
Ġep och
Ġconsum es
× Ķ
Ġpl aster
Ġadvent ures
j ournal
ĠMill enn
ar ist
Ġoff enders
Ġupd ating
Ġo z
Ġax es
ĠAl gebra
Ġcommunic ated
Ġmos que
Im agine
lo op
Ġ //
Ġgr ids
Def inition
F in
ĠG ov
ĠInter view
Ġaut obi
ĠSl ov
Ġmap le
Ã© n
Ġ18 88
ĠMac beth
est ead
Ġinf amous
ĠPe oples
art ments
lect ions
Ġdoctor al
in ars
Ġpartic ulate
ĠCra ig
Ġhar b
Ġsh rine
Ind ividual
ĠH ort
ĠF oster
M el
ĠVal ues
ĠPl atform
Ġimp lements
lud ge
ĠD ance
Ġrad ial
ĠNe igh
Ġprep ares
Ġexplo its
Ġincomp at
Ġpig ments
pl astic
Ġr anc
ĠAtt orney
Ġincorrect ly
ist ine
ĠT E
ĠC CS
l ater
Ġdiagn osing
Ġpast oral
ĠWest minster
b idity
ĠAy urved
ĠO ECD
ĠBur ma
ĠConf uc
Ġv ines
Ġelectroly te
Ġra id
Ġf ines
w aters
ĠDiet ary
nam ents
ĠPer ry
P ol
Ġser pent
ĠEm ail
ĠRec y
ĠBas ically
Ġhum ming
ĠL ak
Ġpre requ
i ets
ĠEx c
ĠD im
ĠC ob
Ġ13 5
d istance
Ġadvis or
Ġno ct
osph ate
Ġregul ator
ĠCont emporary
Ġwh is
âĢĻ )
ĠP ars
Ġ Ø§ÙĦ
Ġrec urs
ĠIP CC
ĠI an
ĠEd ison
Ġampl ifier
Ġp unch
Ġcomp iler
O pt
ĠKrish na
Ġing estion
Ġc act
Ġdisrupt ive
ĠCap itol
unt ary
ur ized
Ġc innamon
10 2
ĠR ank
Ġhold ers
Ġde let
Ġr ally
Ġ18 76
ĠHol mes
Ġswe ep
ĠRe lease
por a
Ġcontrast ing
sy n
Ġemp owered
: :
Ġpers ists
Ġ0 2
Ġsw ings
s kin
ĠEn lightenment
Ġbath ing
Ġt rench
Ġconstruct s
rec ogn
Ġfisher y
H and
Ä ĩ
Ġtit anium
Ġmillig rams
t ask
Ġtradem ark
ĠPl ain
Ġenc aps
Ġall oys
Ġmer ge
Ġinverte brates
Ġint ro
Ġst a
Ġl anes
ĠMark ov
Ġt ric
Ġd B
un it
ĠJenn ifer
Ġhelic opter
Ġmess aging
ĠEd mund
ag ain
ain ting
Ġorigin ates
ĠShe ll
ĠAdapt ive
ĠMark eting
Ġpr ud
Ġunemploy ed
ĠPar am
" :
Ġhyp ers
Ġreconstruct ed
yn ec
or r
Ġflow n
ellect ual
Ġmem oir
Ġimpair ments
ĠAng lic
ĠCare er
Ġdense ly
Ġassemb lies
Ġalgebra ic
sec ure
Ġsp oon
ryst al
Ġseaw ater
Ġbund le
Ġadvertise ments
Ġgu er
ra ising
Ġart ific
requ ently
sh ort
Ġfreed oms
ĠBal ance
Ġjo ins
Ġsp aced
ah an
ĠCongress ional
c ool
ĠStep s
á ½
Ġthought ful
Ġjurisd ictions
Ġanten nas
Ġs orrow
ac ic
Ġp ri
Ġstraw berries
Ġpre aching
agg ering
Ġit eration
Ġignor ant
asp berry
ĠD H
Ġ185 7
ĠProt ect
Ġc ray
Ġst ern
Ġcharacter ised
Ġcomput ationally
Ġen light
Ġinvestig ates
18 0
tt a
Ġtick ets
p oll
Ġlig ament
J ose
ĠPharm ac
ĠPred iction
Ġresemb ling
Ð ¼
ph ot
Ġsurround s
en es
ed er
IS H
Ġviol in
Ġdis g
ident ified
ĠMil ton
M ajor
em ory
Ġpat ented
ent iful
Ġcann on
Ġbon us
ĠRem ote
be k
ĠRw anda
Ġic ons
ĠLen in
Ġdisp osition
ĠTheod ore
Ġaver aged
ID E
Ġ186 6
Ġsm arter
ph alt
Ġrat ified
ĠM ills
ĠV inc
Ġcl iff
Ġ18 81
Ġmanif ested
Ġapplic ants
in atory
ols he
Ġlaund ry
o oks
\ %
Ġcy st
Ġqu o
Ġfer mented
ĠUS S
n ostic
Ġunequ al
Ġdes erts
ĠFather s
ĠIraq i
Ġwind ing
Desc ription
ĠRob ust
ĠP ries
ĠPeters burg
ok u
Ġceremon ial
Ġad orn
ĠIS S
In s
b ai
Ġorn ament
ĠB ag
Ġnan o
Ġc oded
Ġcircum ference
ĠA ur
Ġsn ails
ĠKnow n
oc ese
oph obia
Ġprofound ly
Ġno bility
ĠF olk
Ġthe olog
Ġemb ro
Ġtransist or
19 86
Ġloc ks
ĠP F
Ġrep ay
Ġn emat
Ġexhaust ion
Pat ients
ĠArab ian
b eck
Ġfo il
Ġinv aders
k ward
ĠI UCN
AC H
Ġheaven ly
ĠAs p
G ive
ĠNS W
Ġsp elled
Ġcra bs
ĠMun ich
ĠE co
Be yond
Ġapplic ability
Ã ¥
ĠTh ought
ĠPhilipp ine
Ð ´
ĠEqu ipment
gu ard
W ik
ĠSher man
Ġprog en
ĠU P
he ro
ĠT A
Ġenthusi asts
Ġcompat ibility
ĠAdv ance
Ġbl ues
ĠApp alach
Ġdisin teg
ruct ures
Ġball ot
iot a
C entral
ĠEmploy ment
ĠInc orpor
Ġnegot iation
ber ger
ĠPers pective
Ġaffil iated
ĠMethod ist
r ason
Ġb rowse
Ġwe aving
Ġur gency
Ġstri pped
en stein
Ġ0 3
ocy t
10 6
Ġup side
mid t
Ġspray ing
Ġrecy cl
Ġsquir rels
Ġcatast rophe
ĠP ret
ĠFunction al
ul i
ĠS ax
Ġimpl ication
ĠLl oyd
ĠCan aan
Ġwre ck
Ġtop ography
Ã¨ re
ĠF ellow
off icial
Ġwas ting
Japan ese
Ġmess enger
Ġsel enium
ĠW OR
amb a
Ġth romb
ĠRep eat
met ics
Ġmass acre
Ġred irect
Ġyield ing
ĠS aul
Ġquot ation
Ġdisput ed
I ll
M a
Ġfram ed
[...]
